{
  "version": "1.0",
  "truncation": null,
  "padding": null,
  "added_tokens": [
    {
      "id": 0,
      "content": "<|pad|>",
      "single_word": false,
      "lstrip": false,
      "rstrip": false,
      "normalized": false,
      "special": true
    },
    {
      "id": 1,
      "content": "<|endoftext|>",
      "single_word": false,
      "lstrip": false,
      "rstrip": false,
      "normalized": false,
      "special": true
    },
    {
      "id": 2,
      "content": "<|user|>",
      "single_word": false,
      "lstrip": false,
      "rstrip": false,
      "normalized": false,
      "special": true
    },
    {
      "id": 3,
      "content": "<|bot|>",
      "single_word": false,
      "lstrip": false,
      "rstrip": false,
      "normalized": false,
      "special": true
    }
  ],
  "normalizer": null,
  "pre_tokenizer": {
    "type": "ByteLevel",
    "add_prefix_space": false,
    "trim_offsets": true,
    "use_regex": true
  },
  "post_processor": null,
  "decoder": {
    "type": "ByteLevel",
    "add_prefix_space": true,
    "trim_offsets": true,
    "use_regex": true
  },
  "model": {
    "type": "BPE",
    "dropout": null,
    "unk_token": null,
    "continuing_subword_prefix": null,
    "end_of_word_suffix": null,
    "fuse_unk": false,
    "byte_fallback": false,
    "ignore_merges": false,
    "vocab": {
      "<|pad|>": 0,
      "<|endoftext|>": 1,
      "<|user|>": 2,
      "<|bot|>": 3,
      "!": 4,
      "\"": 5,
      "#": 6,
      "$": 7,
      "%": 8,
      "&": 9,
      "'": 10,
      "(": 11,
      ")": 12,
      "*": 13,
      "+": 14,
      ",": 15,
      "-": 16,
      ".": 17,
      "/": 18,
      "0": 19,
      "1": 20,
      "2": 21,
      "3": 22,
      "4": 23,
      "5": 24,
      "6": 25,
      "7": 26,
      "8": 27,
      "9": 28,
      ":": 29,
      ";": 30,
      "<": 31,
      "=": 32,
      ">": 33,
      "?": 34,
      "@": 35,
      "A": 36,
      "B": 37,
      "C": 38,
      "D": 39,
      "E": 40,
      "F": 41,
      "G": 42,
      "H": 43,
      "I": 44,
      "J": 45,
      "K": 46,
      "L": 47,
      "M": 48,
      "N": 49,
      "O": 50,
      "P": 51,
      "Q": 52,
      "R": 53,
      "S": 54,
      "T": 55,
      "U": 56,
      "V": 57,
      "W": 58,
      "X": 59,
      "Y": 60,
      "Z": 61,
      "[": 62,
      "\\": 63,
      "]": 64,
      "^": 65,
      "_": 66,
      "`": 67,
      "a": 68,
      "b": 69,
      "c": 70,
      "d": 71,
      "e": 72,
      "f": 73,
      "g": 74,
      "h": 75,
      "i": 76,
      "j": 77,
      "k": 78,
      "l": 79,
      "m": 80,
      "n": 81,
      "o": 82,
      "p": 83,
      "q": 84,
      "r": 85,
      "s": 86,
      "t": 87,
      "u": 88,
      "v": 89,
      "w": 90,
      "x": 91,
      "y": 92,
      "z": 93,
      "{": 94,
      "|": 95,
      "}": 96,
      "~": 97,
      "¡": 98,
      "¢": 99,
      "£": 100,
      "¤": 101,
      "¥": 102,
      "¦": 103,
      "§": 104,
      "¨": 105,
      "©": 106,
      "ª": 107,
      "«": 108,
      "¬": 109,
      "®": 110,
      "¯": 111,
      "°": 112,
      "±": 113,
      "²": 114,
      "³": 115,
      "´": 116,
      "µ": 117,
      "¶": 118,
      "·": 119,
      "¸": 120,
      "¹": 121,
      "º": 122,
      "»": 123,
      "¼": 124,
      "½": 125,
      "¾": 126,
      "¿": 127,
      "À": 128,
      "Á": 129,
      "Â": 130,
      "Ã": 131,
      "Ä": 132,
      "Å": 133,
      "Æ": 134,
      "Ç": 135,
      "È": 136,
      "É": 137,
      "Ê": 138,
      "Ë": 139,
      "Ì": 140,
      "Í": 141,
      "Î": 142,
      "Ï": 143,
      "Ð": 144,
      "Ñ": 145,
      "Ò": 146,
      "Ó": 147,
      "Ô": 148,
      "Õ": 149,
      "Ö": 150,
      "×": 151,
      "Ø": 152,
      "Ù": 153,
      "Ú": 154,
      "Û": 155,
      "Ü": 156,
      "Ý": 157,
      "Þ": 158,
      "ß": 159,
      "à": 160,
      "á": 161,
      "â": 162,
      "ã": 163,
      "ä": 164,
      "å": 165,
      "æ": 166,
      "ç": 167,
      "è": 168,
      "é": 169,
      "ê": 170,
      "ë": 171,
      "ì": 172,
      "í": 173,
      "î": 174,
      "ï": 175,
      "ð": 176,
      "ñ": 177,
      "ò": 178,
      "ó": 179,
      "ô": 180,
      "õ": 181,
      "ö": 182,
      "÷": 183,
      "ø": 184,
      "ù": 185,
      "ú": 186,
      "û": 187,
      "ü": 188,
      "ý": 189,
      "þ": 190,
      "ÿ": 191,
      "Ā": 192,
      "ā": 193,
      "Ă": 194,
      "ă": 195,
      "Ą": 196,
      "ą": 197,
      "Ć": 198,
      "ć": 199,
      "Ĉ": 200,
      "ĉ": 201,
      "Ċ": 202,
      "ċ": 203,
      "Č": 204,
      "č": 205,
      "Ď": 206,
      "ď": 207,
      "Đ": 208,
      "đ": 209,
      "Ē": 210,
      "ē": 211,
      "Ĕ": 212,
      "ĕ": 213,
      "Ė": 214,
      "ė": 215,
      "Ę": 216,
      "ę": 217,
      "Ě": 218,
      "ě": 219,
      "Ĝ": 220,
      "ĝ": 221,
      "Ğ": 222,
      "ğ": 223,
      "Ġ": 224,
      "ġ": 225,
      "Ģ": 226,
      "ģ": 227,
      "Ĥ": 228,
      "ĥ": 229,
      "Ħ": 230,
      "ħ": 231,
      "Ĩ": 232,
      "ĩ": 233,
      "Ī": 234,
      "ī": 235,
      "Ĭ": 236,
      "ĭ": 237,
      "Į": 238,
      "į": 239,
      "İ": 240,
      "ı": 241,
      "Ĳ": 242,
      "ĳ": 243,
      "Ĵ": 244,
      "ĵ": 245,
      "Ķ": 246,
      "ķ": 247,
      "ĸ": 248,
      "Ĺ": 249,
      "ĺ": 250,
      "Ļ": 251,
      "ļ": 252,
      "Ľ": 253,
      "ľ": 254,
      "Ŀ": 255,
      "ŀ": 256,
      "Ł": 257,
      "ł": 258,
      "Ń": 259,
      "Ġt": 260,
      "Ġ.": 261,
      "er": 262,
      "<|": 263,
      "|>": 264,
      "Ġ<|": 265,
      "Ġa": 266,
      "ou": 267,
      "in": 268,
      "Ġth": 269,
      "us": 270,
      "Ġs": 271,
      "ĠI": 272,
      "ot": 273,
      "Ġw": 274,
      "Ġy": 275,
      "Ġ,": 276,
      "user": 277,
      "Ġyou": 278,
      "re": 279,
      "bot": 280,
      "Ġm": 281,
      "en": 282,
      "at": 283,
      "on": 284,
      "Ġc": 285,
      "Ġh": 286,
      "Ġthe": 287,
      "an": 288,
      "Ġto": 289,
      "Ġ?": 290,
      "Ġb": 291,
      "ll": 292,
      "it": 293,
      "or": 294,
      "Ġf": 295,
      "Ġd": 296,
      "ing": 297,
      "is": 298,
      "es": 299,
      "of": 300,
      "Ġp": 301,
      "Ġl": 302,
      "Ġg": 303,
      "ve": 304,
      "Ġan": 305,
      "Ġn": 306,
      "om": 307,
      "ĠW": 308,
      "ar": 309,
      "ow": 310,
      "et": 311,
      "ĠT": 312,
      "ed": 313,
      "ex": 314,
      "as": 315,
      "Ġin": 316,
      "ay": 317,
      "Ġit": 318,
      "end": 319,
      "le": 320,
      "Ġha": 321,
      "ĠTh": 322,
      "Ġof": 323,
      "Ġis": 324,
      "Ġand": 325,
      "ext": 326,
      "âĢ": 327,
      "ĠâĢ": 328,
      "ĠY": 329,
      "ke": 330,
      "ic": 331,
      "ĠâĢĻ": 332,
      "Ġbe": 333,
      "Ġfor": 334,
      "oft": 335,
      "endoft": 336,
      "endoftext": 337,
      "'s": 338,
      "ere": 339,
      "ld": 340,
      "Ġre": 341,
      "oo": 342,
      "Ġon": 343,
      "ĠH": 344,
      "Ġdo": 345,
      "Ġhave": 346,
      "ut": 347,
      "gh": 348,
      "Ġthat": 349,
      "Ġme": 350,
      "hat": 351,
      "ver": 352,
      "Ġwe": 353,
      "id": 354,
      "al": 355,
      "ch": 356,
      "ould": 357,
      "all": 358,
      "ĠA": 359,
      "Ġli": 360,
      "Ġ!": 361,
      "Ġyour": 362,
      "out": 363,
      "Ġare": 364,
      "ght": 365,
      "ĠS": 366,
      "ent": 367,
      "ri": 368,
      "el": 369,
      "Ġcan": 370,
      "'t": 371,
      "im": 372,
      "ion": 373,
      "ill": 374,
      "ĠO": 375,
      "Ġe": 376,
      "Ġst": 377,
      "ome": 378,
      "ĠM": 379,
      "ir": 380,
      "ter": 381,
      "Ġmy": 382,
      "ro": 383,
      "ith": 384,
      "ĠIt": 385,
      "Ġgo": 386,
      "Ġlike": 387,
      "Ġsh": 388,
      "Ġse": 389,
      "ĠYou": 390,
      "ĠC": 391,
      "Ġk": 392,
      "ad": 393,
      "ĠWhat": 394,
      "ĠWe": 395,
      "ĠD": 396,
      "ly": 397,
      "Ġne": 398,
      "Ġwith": 399,
      "ac": 400,
      "st": 401,
      "ood": 402,
      "Ġthis": 403,
      "nd": 404,
      "se": 405,
      "ust": 406,
      "Ġab": 407,
      "am": 408,
      "ĠB": 409,
      "Ġj": 410,
      "ink": 411,
      "our": 412,
      "ant": 413,
      "ally": 414,
      "Ġwh": 415,
      "op": 416,
      "ĠN": 417,
      "ĠYes": 418,
      "Ġso": 419,
      "if": 420,
      "very": 421,
      "Ġat": 422,
      "ake": 423,
      "Ġabout": 424,
      "Ġu": 425,
      "ec": 426,
      "Ġsu": 427,
      "Ġch": 428,
      "Ġwill": 429,
      "ea": 430,
      "Ġthink": 431,
      "Ġdon": 432,
      "ry": 433,
      "Ġget": 434,
      "Ġkn": 435,
      "Ġnot": 436,
      "th": 437,
      "'m": 438,
      "ank": 439,
      "ce": 440,
      "Ġknow": 441,
      "Ġwor": 442,
      "Ġhe": 443,
      "ĠThat": 444,
      "ĠThe": 445,
      "ook": 446,
      "ur": 447,
      "Ġwas": 448,
      "ore": 449,
      "Ġbut": 450,
      "est": 451,
      "Ġsee": 452,
      "ĠHow": 453,
      "ice": 454,
      "ble": 455,
      "Ġas": 456,
      "Ġthere": 457,
      "her": 458,
      "ĠWh": 459,
      "ase": 460,
      "Ġsome": 461,
      "Ġcom": 462,
      "ra": 463,
      "right": 464,
      "ime": 465,
      "Ġall": 466,
      "ge": 467,
      "ĠL": 468,
      "ind": 469,
      "Ġwhat": 470,
      "Ġwant": 471,
      "'ll": 472,
      "ight": 473,
      "pp": 474,
      "ation": 475,
      "Ġany": 476,
      "Ġal": 477,
      "Ġo": 478,
      "Ġgood": 479,
      "Ġor": 480,
      "Ġone": 481,
      "Ġjust": 482,
      "Ġex": 483,
      "il": 484,
      "Ġright": 485,
      "Ġwould": 486,
      "Ġvery": 487,
      "Ġus": 488,
      "ard": 489,
      "ul": 490,
      "art": 491,
      "Ġtime": 492,
      "ĠG": 493,
      "Ġpro": 494,
      "ĠDo": 495,
      "ĠWell": 496,
      "ive": 497,
      "lease": 498,
      "ell": 499,
      "nt": 500,
      "ĠThank": 501,
      "one": 502,
      "rom": 503,
      "and": 504,
      "ĠNo": 505,
      "Ġwork": 506,
      "ess": 507,
      "Ġneed": 508,
      "Ġpl": 509,
      "Ġout": 510,
      "qu": 511,
      "Ġtoo": 512,
      "ct": 513,
      "Ġreally": 514,
      "ure": 515,
      "Ġhere": 516,
      "uch": 517,
      "ine": 518,
      "ate": 519,
      "ong": 520,
      "ĠOh": 521,
      "Ġam": 522,
      "Ġup": 523,
      "Ġsp": 524,
      "Ġmuch": 525,
      "ĠE": 526,
      "ain": 527,
      "ast": 528,
      "ment": 529,
      "ĠP": 530,
      "Ġgoing": 531,
      "day": 532,
      "Ġdid": 533,
      "Ġlook": 534,
      "ĠBut": 535,
      "ers": 536,
      "ort": 537,
      "Ġthey": 538,
      "Ġour": 539,
      "Ġtake": 540,
      "Ġif": 541,
      "any": 542,
      "ack": 543,
      "os": 544,
      "ven": 545,
      "ep": 546,
      "ound": 547,
      "Ġfrom": 548,
      "Ġcomp": 549,
      "ĠF": 550,
      "ear": 551,
      "Ġr": 552,
      "ig": 553,
      "Ġplease": 554,
      "ĠJ": 555,
      "Ġcon": 556,
      "un": 557,
      "elp": 558,
      "other": 559,
      "Ġhelp": 560,
      "Ġshould": 561,
      "ost": 562,
      "ays": 563,
      "Ġfe": 564,
      "Ġnow": 565,
      "Ġaf": 566,
      "ĠR": 567,
      "are": 568,
      "ie": 569,
      "reat": 570,
      "ol": 571,
      "Ġcl": 572,
      "um": 573,
      "ish": 574,
      "Ġoff": 575,
      "Ġqu": 576,
      "ame": 577,
      "Ġmore": 578,
      "'ve": 579,
      "Ġthem": 580,
      "king": 581,
      "Ġnew": 582,
      "ĠHe": 583,
      "res": 584,
      "ist": 585,
      "ob": 586,
      "Ġgot": 587,
      "Ġbeen": 588,
      "hing": 589,
      "ite": 590,
      "ick": 591,
      "thing": 592,
      "'re": 593,
      "Ġhow": 594,
      "Ġ1": 595,
      "ity": 596,
      "Ġlo": 597,
      "ĠAnd": 598,
      "Ġv": 599,
      "Ġro": 600,
      "ning": 601,
      "Ġag": 602,
      "Ġmake": 603,
      "ree": 604,
      "ect": 605,
      "ĠCan": 606,
      "ĠIs": 607,
      "Ġno": 608,
      "omet": 609,
      "own": 610,
      "Ġcould": 611,
      "Ġ..": 612,
      "ies": 613,
      "ount": 614,
      "eop": 615,
      "ĠOK": 616,
      "use": 617,
      "ag": 618,
      "eople": 619,
      "'d": 620,
      "ass": 621,
      "Ġ...": 622,
      "Ġinter": 623,
      "ous": 624,
      "Ġby": 625,
      "Ġover": 626,
      "Ġwhen": 627,
      "he": 628,
      "ek": 629,
      "Ġhas": 630,
      "Ġtw": 631,
      "ck": 632,
      "Ġen": 633,
      "Ġlot": 634,
      "Ġpeople": 635,
      "Ġher": 636,
      "Ġbus": 637,
      "Ġbu": 638,
      "Ġtr": 639,
      "act": 640,
      "Ġweek": 641,
      "Ġevery": 642,
      "Ġthen": 643,
      "Ġcall": 644,
      "Ġexp": 645,
      "Ġshe": 646,
      "ĠLet": 647,
      "Ġsure": 648,
      "Ġsa": 649,
      "ough": 650,
      "Ġcome": 651,
      "00": 652,
      "Ġsomet": 653,
      "em": 654,
      "Ġtell": 655,
      "Ġar": 656,
      "irst": 657,
      "orry": 658,
      "der": 659,
      "ĠCh": 660,
      "Ġwell": 661,
      "Ġthing": 662,
      "ach": 663,
      "Ġpr": 664,
      "Ġbet": 665,
      "ap": 666,
      "fer": 667,
      "Ġhad": 668,
      "ĠSo": 669,
      "able": 670,
      "ĠV": 671,
      "ĠGood": 672,
      "Ġgreat": 673,
      "Ġyear": 674,
      "ĠMay": 675,
      "Ġafter": 676,
      "age": 677,
      "Ġday": 678,
      "Ġback": 679,
      "ud": 680,
      "row": 681,
      "Ġlong": 682,
      "Ġdoes": 683,
      "ance": 684,
      "ĠAre": 685,
      "ving": 686,
      "Ġpre": 687,
      "ak": 688,
      "Ġco": 689,
      "eah": 690,
      "ĠMy": 691,
      "ber": 692,
      "ide": 693,
      "Ġway": 694,
      "blem": 695,
      "ĠThey": 696,
      "ĠWhy": 697,
      "Ġproblem": 698,
      "oy": 699,
      "cc": 700,
      "Ġhim": 701,
      "Ġcour": 702,
      "itt": 703,
      "Ġother": 704,
      "Ġsir": 705,
      "Ġlet": 706,
      "port": 707,
      "Ġjob": 708,
      "ĠHa": 709,
      "ich": 710,
      "Ġwon": 711,
      "ĠIf": 712,
      "Ġapp": 713,
      "Ġroom": 714,
      "ĠThere": 715,
      "Ġtoday": 716,
      "Ġmo": 717,
      "Ġfirst": 718,
      "Ġll": 719,
      "Ġtwo": 720,
      "ty": 721,
      "Ġad": 722,
      "ĠThis": 723,
      "Ġgive": 724,
      "Ġonly": 725,
      "ually": 726,
      "ĠHere": 727,
      "Ġsomething": 728,
      "ef": 729,
      "Ġgu": 730,
      "so": 731,
      "ary": 732,
      "ĠMr": 733,
      "Ġsay": 734,
      "Ġtry": 735,
      "Ġbr": 736,
      "ab": 737,
      "Ġmany": 738,
      "Ġkind": 739,
      "Ġ2": 740,
      "red": 741,
      "Ġpay": 742,
      "ace": 743,
      "Ġim": 744,
      "ĠYeah": 745,
      "Ġcourse": 746,
      "ang": 747,
      "ress": 748,
      "Ġ'": 749,
      "be": 750,
      "riend": 751,
      "orning": 752,
      "ĠOk": 753,
      "oney": 754,
      "Ġfeel": 755,
      "Ġcompany": 756,
      "ĠThanks": 757,
      "ert": 758,
      "ool": 759,
      "Ġpart": 760,
      "Ġfind": 761,
      "ĠSure": 762,
      "Ġfl": 763,
      "ose": 764,
      "ater": 765,
      "ip": 766,
      "ue": 767,
      "Ġlast": 768,
      "Ġmorning": 769,
      "Ġbetter": 770,
      "Ġsorry": 771,
      "ans": 772,
      "ail": 773,
      "Ġnext": 774,
      "Ġanything": 775,
      "Ġper": 776,
      "Ġmeet": 777,
      "erv": 778,
      "eck": 779,
      "Ġdidn": 780,
      "Ġhapp": 781,
      "Ġalso": 782,
      "Ġbuy": 783,
      "ng": 784,
      "ial": 785,
      "Ġcar": 786,
      "Ġtra": 787,
      "Ġres": 788,
      "Ġlove": 789,
      "atch": 790,
      "ady": 791,
      "Ġint": 792,
      "Ġke": 793,
      "ought": 794,
      "ĠHave": 795,
      "Ġwere": 796,
      "Ġeven": 797,
      "ark": 798,
      "ee": 799,
      "ĠDon": 800,
      "Ġthan": 801,
      "Ġmust": 802,
      "ittle": 803,
      "way": 804,
      "ign": 805,
      "Ġlittle": 806,
      "ĠWould": 807,
      "Ġun": 808,
      "fore": 809,
      "orrow": 810,
      "ause": 811,
      "ange": 812,
      "Ġhis": 813,
      "ways": 814,
      "sel": 815,
      "Ġmay": 816,
      "Ġbefore": 817,
      "ounds": 818,
      "Ġmin": 819,
      "Ġmoney": 820,
      "Ġwho": 821,
      "get": 822,
      "Ġop": 823,
      "Ġbec": 824,
      "Ġalways": 825,
      "Ġsch": 826,
      "Ġwr": 827,
      "urn": 828,
      "iz": 829,
      "ise": 830,
      "Ġnice": 831,
      "Ġman": 832,
      "Ġcheck": 833,
      "Ġmon": 834,
      "ence": 835,
      "Ġsm": 836,
      "ĠChin": 837,
      "Ġfriend": 838,
      "ĠShe": 839,
      "Ġstart": 840,
      "ely": 841,
      "Ġinterest": 842,
      "Ġdown": 843,
      "ait": 844,
      "ĠIn": 845,
      "alk": 846,
      "orm": 847,
      "Ġdif": 848,
      "ff": 849,
      "Ġask": 850,
      "ĠVe": 851,
      "Ġacc": 852,
      "Ġagain": 853,
      "Ġyes": 854,
      "ather": 855,
      "ition": 856,
      "ese": 857,
      "Ġmonth": 858,
      "ĠHell": 859,
      "ĠHello": 860,
      "Ġbl": 861,
      "ĠWhen": 862,
      "ade": 863,
      "Ġthings": 864,
      "ĠDid": 865,
      "Ġhome": 866,
      "Ġthank": 867,
      "Ġplay": 868,
      "Ġid": 869,
      "Ġde": 870,
      "ars": 871,
      "Ġname": 872,
      "ting": 873,
      "Ġtom": 874,
      "mer": 875,
      "Ġuse": 876,
      "Ġhi": 877,
      "ĠNot": 878,
      "ile": 879,
      "Ġthese": 880,
      "Ġhard": 881,
      "ĠU": 882,
      "Ġmean": 883,
      "ĠWhere": 884,
      "ĠEx": 885,
      "pt": 886,
      "Ġnight": 887,
      "Ġhop": 888,
      "iss": 889,
      "Ġstill": 890,
      "self": 891,
      "ful": 892,
      "ĠAll": 893,
      "oss": 894,
      "Ġwhere": 895,
      "vie": 896,
      "Ġtomorrow": 897,
      "Ġminut": 898,
      "Ġmost": 899,
      "ens": 900,
      "Ġput": 901,
      "nder": 902,
      "oin": 903,
      "Ġlea": 904,
      "Ġdep": 905,
      "Ġfew": 906,
      "Ġidea": 907,
      "od": 908,
      "Ġrec": 909,
      "du": 910,
      "Ġtheir": 911,
      "Ġdays": 912,
      "ĠHi": 913,
      "eri": 914,
      "Ġdr": 915,
      "Ġclass": 916,
      "Ġfood": 917,
      "Ġdis": 918,
      "Ġfin": 919,
      "ny": 920,
      "ĠCould": 921,
      "Ġdoing": 922,
      "lish": 923,
      "Ġinto": 924,
      "Ġshow": 925,
      "ions": 926,
      "ild": 927,
      "Ġph": 928,
      "Ġwhy": 929,
      "Ġgr": 930,
      "Ġ3": 931,
      "Ġunder": 932,
      "ouse": 933,
      "Ġbest": 934,
      "Ġwait": 935,
      "Ġnever": 936,
      "Ġcont": 937,
      "Ġbig": 938,
      "Ġbad": 939,
      "Ġbook": 940,
      "Ġstud": 941,
      "ĠRe": 942,
      "ond": 943,
      "ĠPlease": 944,
      "ily": 945,
      "ĠJust": 946,
      "Ġkeep": 947,
      "Ġel": 948,
      "ner": 949,
      "Ġhour": 950,
      "Ġschool": 951,
      "Ġcare": 952,
      "ire": 953,
      "Ġfa": 954,
      "Ġdec": 955,
      "iness": 956,
      "ĠThen": 957,
      "ĠEng": 958,
      "Ġhope": 959,
      "ried": 960,
      "ock": 961,
      "Ġfine": 962,
      "Ġbecause": 963,
      "Ġmind": 964,
      "Ġ$": 965,
      "Ġcard": 966,
      "Ġfam": 967,
      "Ġaround": 968,
      "Ġle": 969,
      "artment": 970,
      "Ġorder": 971,
      "Ġelse": 972,
      "Ġyears": 973,
      "Ġseem": 974,
      "Ġthree": 975,
      "gg": 976,
      "imes": 977,
      "ĠOf": 978,
      "Ġquite": 979,
      "Ġnum": 980,
      "ult": 981,
      "raid": 982,
      "form": 983,
      "Ġafraid": 984,
      "pl": 985,
      "ves": 986,
      "vel": 987,
      "Ġplan": 988,
      "Ġdiffer": 989,
      "ertain": 990,
      "cuse": 991,
      "Ġdoll": 992,
      "Ġeat": 993,
      "oon": 994,
      "ĠSt": 995,
      "cl": 996,
      "Ġact": 997,
      "Ġhand": 998,
      "Ġlooking": 999,
      "Ġcount": 1000,
      "Ġoffice": 1001,
      "Ġte": 1002,
      "ĠEnglish": 1003,
      "Ġbusiness": 1004,
      "Ġhigh": 1005,
      "Ġworking": 1006,
      "per": 1007,
      "Ġbot": 1008,
      "Ġhot": 1009,
      "ash": 1010,
      "Ġma": 1011,
      "erson": 1012,
      "ix": 1013,
      "Ġ5": 1014,
      "Ġsc": 1015,
      "Ġisn": 1016,
      "ĠReally": 1017,
      "Ġspea": 1018,
      "ĠK": 1019,
      "ĠMaybe": 1020,
      "Ġold": 1021,
      "Ġsounds": 1022,
      "Ġdrink": 1023,
      "Ġhouse": 1024,
      "Ġsupp": 1025,
      "anc": 1026,
      "Ġrem": 1027,
      "Ġsoon": 1028,
      "joy": 1029,
      "ull": 1030,
      "Ġthought": 1031,
      "Ġmade": 1032,
      "Ġtea": 1033,
      "Ġsal": 1034,
      "ations": 1035,
      "Ġstay": 1036,
      "come": 1037,
      "Ġbel": 1038,
      "Ġrest": 1039,
      "Ġplace": 1040,
      "arge": 1041,
      "Ġnumber": 1042,
      "ieve": 1043,
      "Ġdoesn": 1044,
      "ew": 1045,
      "Ġwonder": 1046,
      "ord": 1047,
      "Ġgl": 1048,
      "Ġsaid": 1049,
      "ible": 1050,
      "Ġeas": 1051,
      "ĠExcuse": 1052,
      "Ġanother": 1053,
      "noon": 1054,
      "und": 1055,
      "Ġwatch": 1056,
      "Ġafternoon": 1057,
      "Ġenjoy": 1058,
      "akes": 1059,
      "iver": 1060,
      "ten": 1061,
      "Ġhear": 1062,
      "Ġlear": 1063,
      "Ġpass": 1064,
      "oint": 1065,
      "Ġsame": 1066,
      "Ġhaven": 1067,
      "Ġatt": 1068,
      "ĠChinese": 1069,
      "Ġton": 1070,
      "les": 1071,
      "Ġwhich": 1072,
      "Ġchange": 1073,
      "ember": 1074,
      "Ġprice": 1075,
      "Ġsw": 1076,
      "ye": 1077,
      "Ġdollars": 1078,
      "ated": 1079,
      "Ġheard": 1080,
      "ple": 1081,
      "Ġminutes": 1082,
      "Ġeach": 1083,
      "irl": 1084,
      "Ġta": 1085,
      "Ġinv": 1086,
      "Ġsec": 1087,
      "ĠNow": 1088,
      "Ġsuch": 1089,
      "ents": 1090,
      "Ġspec": 1091,
      "Ġmight": 1092,
      "Ġperson": 1093,
      "Ġrel": 1094,
      "Ġaccount": 1095,
      "oth": 1096,
      "Ġdes": 1097,
      "Ġdin": 1098,
      "ĠOn": 1099,
      "Ġguess": 1100,
      "Ġtalk": 1101,
      "Ġeverything": 1102,
      "Ġimport": 1103,
      "Ġdri": 1104,
      "og": 1105,
      "tty": 1106,
      "Ġear": 1107,
      "uck": 1108,
      "Ġmom": 1109,
      "Ġcle": 1110,
      "Ġdone": 1111,
      "Ġserv": 1112,
      "Ġra": 1113,
      "ready": 1114,
      "Ġsk": 1115,
      "Ġread": 1116,
      "Ġalready": 1117,
      "ertainly": 1118,
      "Ġleave": 1119,
      "Ġem": 1120,
      "Ġgetting": 1121,
      "Ġdifferent": 1122,
      "Ġins": 1123,
      "Ġbring": 1124,
      "Ġenough": 1125,
      "stand": 1126,
      "Ġprodu": 1127,
      "Ġtonight": 1128,
      "Ġyet": 1129,
      "ĠOkay": 1130,
      "Ġusually": 1131,
      "ict": 1132,
      "icket": 1133,
      "Ġbit": 1134,
      "Ġcomput": 1135,
      "up": 1136,
      "ĠSh": 1137,
      "ons": 1138,
      "ĠYour": 1139,
      "Ġwhile": 1140,
      "Ġbre": 1141,
      "ory": 1142,
      "ular": 1143,
      "Ġhappen": 1144,
      "Ġticket": 1145,
      "ren": 1146,
      "Ġfun": 1147,
      "Ġfriends": 1148,
      "fe": 1149,
      "ork": 1150,
      "Ġworry": 1151,
      "Ġvis": 1152,
      "Ġbelieve": 1153,
      "ize": 1154,
      "aut": 1155,
      "Ġset": 1156,
      "Ġbo": 1157,
      "Ġmat": 1158,
      "Ġtrain": 1159,
      "Ġdinner": 1160,
      "Ġgirl": 1161,
      "Ġfo": 1162,
      "Ġbeaut": 1163,
      "ical": 1164,
      "Ġlooks": 1165,
      "Ġpretty": 1166,
      "vor": 1167,
      "Ġready": 1168,
      "Ġstop": 1169,
      "Ġthose": 1170,
      "Ġmar": 1171,
      "Ġmeeting": 1172,
      "rough": 1173,
      "Ġturn": 1174,
      "ĠAny": 1175,
      "Ġlate": 1176,
      "Ġlater": 1177,
      "Ġter": 1178,
      "Ġlist": 1179,
      "Ġcost": 1180,
      "Ġimportant": 1181,
      "ĠAl": 1182,
      "Ġap": 1183,
      "Ġlive": 1184,
      "Ġinform": 1185,
      "Ġdisc": 1186,
      "ĠWill": 1187,
      "view": 1188,
      "Ġaway": 1189,
      "ĠHey": 1190,
      "uan": 1191,
      "Ġcoming": 1192,
      "Ġused": 1193,
      "ctor": 1194,
      "Ġwrong": 1195,
      "Ġunderstand": 1196,
      "ub": 1197,
      "Ġthrough": 1198,
      "Ġevening": 1199,
      "Ġcoll": 1200,
      "Ġhappy": 1201,
      "cept": 1202,
      "Ġadd": 1203,
      "Ġtri": 1204,
      "ĠFr": 1205,
      "Ġreg": 1206,
      "eft": 1207,
      "Ġphone": 1208,
      "Ġshop": 1209,
      "Ġopen": 1210,
      "Ġoffer": 1211,
      "Ġsmall": 1212,
      "Ġspeak": 1213,
      "Ġparty": 1214,
      "Ġsign": 1215,
      "ities": 1216,
      "Ġfr": 1217,
      "Ġoften": 1218,
      "Ġfree": 1219,
      "Ġleft": 1220,
      "Ġever": 1221,
      "Ġfamily": 1222,
      "air": 1223,
      "Ġcou": 1224,
      "Ġ10": 1225,
      "gether": 1226,
      "ian": 1227,
      "Ġspecial": 1228,
      "Ġdel": 1229,
      "Ġcity": 1230,
      "Ġthanks": 1231,
      "ci": 1232,
      "Ġown": 1233,
      "ĠJo": 1234,
      "arket": 1235,
      "meric": 1236,
      "Ġcomputer": 1237,
      "Ġair": 1238,
      "iting": 1239,
      "iday": 1240,
      "its": 1241,
      "Ġten": 1242,
      "Ġrun": 1243,
      "ments": 1244,
      "Ġlearn": 1245,
      "Ġmus": 1246,
      "Ġbeautif": 1247,
      "off": 1248,
      "Ġform": 1249,
      "ĠAmeric": 1250,
      "ĠLook": 1251,
      "ably": 1252,
      "Ġend": 1253,
      "Ġsend": 1254,
      "Ġcompl": 1255,
      "Ġeasy": 1256,
      "Ġfar": 1257,
      "Ġproduct": 1258,
      "Ġcountry": 1259,
      "ved": 1260,
      "Ġmiss": 1261,
      "Ġchild": 1262,
      "Ġpres": 1263,
      "ĠBe": 1264,
      "Ġquest": 1265,
      "Ġmoment": 1266,
      "Ġbeautiful": 1267,
      "fect": 1268,
      "Ġseems": 1269,
      "Ġ6": 1270,
      "Ġweekend": 1271,
      "leas": 1272,
      "ors": 1273,
      "Ġrece": 1274,
      "ĠWhich": 1275,
      "ward": 1276,
      "Ġstr": 1277,
      "ĠGreat": 1278,
      "Ġservice": 1279,
      "een": 1280,
      "Ġremember": 1281,
      "gr": 1282,
      "Ġnews": 1283,
      "Ġprefer": 1284,
      "Ġimp": 1285,
      "ivers": 1286,
      "ĠSorry": 1287,
      "Ġsl": 1288,
      "Ġexpens": 1289,
      "ever": 1290,
      "Ġkid": 1291,
      "Ġcons": 1292,
      "ia": 1293,
      "ious": 1294,
      "Ġfive": 1295,
      "ason": 1296,
      "Ġagree": 1297,
      "aper": 1298,
      "Ġprom": 1299,
      "Ġpos": 1300,
      "ĠWho": 1301,
      "ery": 1302,
      "Ġwel": 1303,
      "Ġexperi": 1304,
      "Ġteach": 1305,
      "Ġ4": 1306,
      "ĠAs": 1307,
      "aur": 1308,
      "Ġtogether": 1309,
      "ited": 1310,
      "ĠFor": 1311,
      "ploy": 1312,
      "old": 1313,
      "Ġext": 1314,
      "Ġac": 1315,
      "ates": 1316,
      "Ġtold": 1317,
      "Ġhaving": 1318,
      "Ġfinish": 1319,
      "Ġglad": 1320,
      "bably": 1321,
      "Ġwent": 1322,
      "Ġinterested": 1323,
      "iv": 1324,
      "ph": 1325,
      "ouble": 1326,
      "Ġable": 1327,
      "offee": 1328,
      "Ġtrue": 1329,
      "Ġposs": 1330,
      "Ġret": 1331,
      "Ġyourself": 1332,
      "Ġlife": 1333,
      "enty": 1334,
      "Ġreal": 1335,
      "ody": 1336,
      "ĠCome": 1337,
      "Ġinterview": 1338,
      "Ġhours": 1339,
      "ping": 1340,
      "ient": 1341,
      "Ġcol": 1342,
      "als": 1343,
      "Ġok": 1344,
      "ĠChina": 1345,
      "Ġinformation": 1346,
      "hn": 1347,
      "ract": 1348,
      "Ġ7": 1349,
      "Ġla": 1350,
      "ager": 1351,
      "Ġwelcome": 1352,
      "unch": 1353,
      "Ġinteresting": 1354,
      "ince": 1355,
      "Ġbeing": 1356,
      "Ġmovie": 1357,
      "Ġbreak": 1358,
      "Ġworld": 1359,
      "Ġsomeone": 1360,
      "ices": 1361,
      "ife": 1362,
      "Ġmyself": 1363,
      "aurant": 1364,
      "Ġcoffee": 1365,
      "ntil": 1366,
      "Ġstudy": 1367,
      "Ġsing": 1368,
      "ating": 1369,
      "Ġbank": 1370,
      "Ġpleas": 1371,
      "Ġ8": 1372,
      "alking": 1373,
      "Ġsur": 1374,
      "arent": 1375,
      "Ġtrans": 1376,
      "here": 1377,
      "ĠWow": 1378,
      "Ġnothing": 1379,
      "Ġfill": 1380,
      "Ġseat": 1381,
      "Ġadv": 1382,
      "Ġfavor": 1383,
      "ired": 1384,
      "Ġbusy": 1385,
      "Ġexpect": 1386,
      "Ġmatter": 1387,
      "Ġmusic": 1388,
      "terday": 1389,
      "alth": 1390,
      "Ġthinking": 1391,
      "ction": 1392,
      "Ġapartment": 1393,
      "Ġexpensive": 1394,
      "lf": 1395,
      "most": 1396,
      "ts": 1397,
      "Ġmarket": 1398,
      "ĠTo": 1399,
      "Ġwater": 1400,
      "Ġfour": 1401,
      "Ġuntil": 1402,
      "Ġguy": 1403,
      "ĠJohn": 1404,
      "Ġpol": 1405,
      "Ġcomm": 1406,
      "pe": 1407,
      "Ġav": 1408,
      "reet": 1409,
      "Ġcred": 1410,
      "Ġluck": 1411,
      "room": 1412,
      "Ġtrip": 1413,
      "iet": 1414,
      "ĠMary": 1415,
      "ied": 1416,
      "ĠDoes": 1417,
      "Ġactually": 1418,
      "Ġboth": 1419,
      "Ġcor": 1420,
      "Ġspend": 1421,
      "000": 1422,
      "Ġbed": 1423,
      "Ġbir": 1424,
      "Ġinst": 1425,
      "amp": 1426,
      "ier": 1427,
      "oor": 1428,
      "atur": 1429,
      "Ġrestaurant": 1430,
      "omm": 1431,
      "Ġprobably": 1432,
      "Ġwin": 1433,
      "enc": 1434,
      "Ġseen": 1435,
      "Ġmaybe": 1436,
      "Ġpick": 1437,
      "edu": 1438,
      "Ġexam": 1439,
      "ĠSee": 1440,
      "actly": 1441,
      "Ġsecond": 1442,
      "lic": 1443,
      "Ġsit": 1444,
      "Ġcook": 1445,
      "ib": 1446,
      "ike": 1447,
      "Ġmet": 1448,
      "ides": 1449,
      "Ġcharge": 1450,
      "Ġyesterday": 1451,
      "Ġty": 1452,
      "Ġweather": 1453,
      "mm": 1454,
      "Ġthir": 1455,
      "ately": 1456,
      "Ġcloth": 1457,
      "Ġexperience": 1458,
      "az": 1459,
      "ding": 1460,
      "fic": 1461,
      "ention": 1462,
      "Ġnear": 1463,
      "leep": 1464,
      "Ġbeg": 1465,
      "tern": 1466,
      "ific": 1467,
      "ject": 1468,
      "Ġwalk": 1469,
      "Ġwife": 1470,
      "Ġfil": 1471,
      "ĠTom": 1472,
      "Ġcho": 1473,
      "Ġposition": 1474,
      "Ġpossible": 1475,
      "Ġbag": 1476,
      "Ġexc": 1477,
      "Ġcalled": 1478,
      "erious": 1479,
      "arents": 1480,
      "Ġtable": 1481,
      "Ġboss": 1482,
      "Ġfound": 1483,
      "ĠAct": 1484,
      "ĠBy": 1485,
      "ual": 1486,
      "Ġhappened": 1487,
      "Ġind": 1488,
      "Ġsuit": 1489,
      "clud": 1490,
      "Ġcash": 1491,
      "Ġstand": 1492,
      "Ġago": 1493,
      "Ġcold": 1494,
      "ĠActually": 1495,
      "Ġqual": 1496,
      "Ġflight": 1497,
      "Ġemploy": 1498,
      "Ġhead": 1499,
      "time": 1500,
      "Ġsugg": 1501,
      "Ġmanager": 1502,
      "iversity": 1503,
      "Ġsuggest": 1504,
      "Ġhalf": 1505,
      "Ġ-": 1506,
      "Ġsix": 1507,
      "Ġyuan": 1508,
      "Ġvisit": 1509,
      "Ġcredit": 1510,
      "Ġent": 1511,
      "ath": 1512,
      "ĠSm": 1513,
      "Ġsub": 1514,
      "Ġtravel": 1515,
      "Ġcut": 1516,
      "Ġdress": 1517,
      "Ġalmost": 1518,
      "Ġdoctor": 1519,
      "ĠCertainly": 1520,
      "osed": 1521,
      "Ġterri": 1522,
      "Ġparents": 1523,
      "Ġwar": 1524,
      "Ġfact": 1525,
      "Ġhealth": 1526,
      "Ġsever": 1527,
      "ĠNew": 1528,
      "ĠEvery": 1529,
      "ĠFine": 1530,
      "Ġdeal": 1531,
      "Ġwish": 1532,
      "Ġhotel": 1533,
      "Ġserious": 1534,
      "Ġfull": 1535,
      "Ġpack": 1536,
      "ai": 1537,
      "Ġthough": 1538,
      "Ġhur": 1539,
      "Ġvac": 1540,
      "Ġweeks": 1541,
      "Ġtaking": 1542,
      "Ġbirth": 1543,
      "Ġseveral": 1544,
      "Ġcur": 1545,
      "Ġshort": 1546,
      "Ġdepartment": 1547,
      "Ġ9": 1548,
      "Ġbought": 1549,
      "ister": 1550,
      "Ġwear": 1551,
      "Ġlight": 1552,
      "erc": 1553,
      "Ġbill": 1554,
      "ries": 1555,
      "Ġperfect": 1556,
      "Ġteam": 1557,
      "br": 1558,
      "Ġtimes": 1559,
      "Ġmed": 1560,
      "Ġfore": 1561,
      "Ġintern": 1562,
      "Ġmove": 1563,
      "ĠOur": 1564,
      "ense": 1565,
      "Ġpop": 1566,
      "ĠAn": 1567,
      "ics": 1568,
      "Ġele": 1569,
      "Ġcr": 1570,
      "Ġhair": 1571,
      "ational": 1572,
      "ages": 1573,
      "Ġclean": 1574,
      "oose": 1575,
      "Ġonce": 1576,
      "Ġreserv": 1577,
      "Ġsmo": 1578,
      "Ġmakes": 1579,
      "Ġcase": 1580,
      "arg": 1581,
      "uring": 1582,
      "ures": 1583,
      "Ġclothes": 1584,
      "ustom": 1585,
      "Ġ%": 1586,
      "Ġcalling": 1587,
      "Ġlost": 1588,
      "ither": 1589,
      "Ġsum": 1590,
      "ĠUn": 1591,
      "jing": 1592,
      "ĠRight": 1593,
      "Ġminute": 1594,
      "ues": 1595,
      "Ġbas": 1596,
      "Ġpaper": 1597,
      "ush": 1598,
      "Ġinclud": 1599,
      "ider": 1600,
      "Ġavail": 1601,
      "where": 1602,
      "aps": 1603,
      "ffic": 1604,
      "oes": 1605,
      "Ġtour": 1606,
      "reen": 1607,
      "Ġgi": 1608,
      "ĠAf": 1609,
      "Ġwanted": 1610,
      "ommend": 1611,
      "Ġstore": 1612,
      "Ġdiffic": 1613,
      "ĠFriday": 1614,
      "ught": 1615,
      "Ġ;": 1616,
      "ines": 1617,
      "Ġdate": 1618,
      "Ġrather": 1619,
      "Ġsaw": 1620,
      "Ġresp": 1621,
      "Ġred": 1622,
      "ift": 1623,
      "Ġexerc": 1624,
      "Ġrecommend": 1625,
      "ont": 1626,
      "Ġca": 1627,
      "Ġ20": 1628,
      "Ġtalking": 1629,
      "Ġbro": 1630,
      "Ġdire": 1631,
      "Ġsell": 1632,
      "Ġeveryone": 1633,
      "Ġappre": 1634,
      "Ġmarried": 1635,
      "got": 1636,
      "Ġrent": 1637,
      "ĠAt": 1638,
      "Ġass": 1639,
      "Ġbirthday": 1640,
      "Ġlarge": 1641,
      "ĠAb": 1642,
      "Ġmonths": 1643,
      "Ġbegin": 1644,
      "ream": 1645,
      "Ġline": 1646,
      "Ġref": 1647,
      "ĠOne": 1648,
      "Ġavailable": 1649,
      "Ġappreci": 1650,
      "ax": 1651,
      "Ġmach": 1652,
      "Ġpa": 1653,
      "ided": 1654,
      "cell": 1655,
      "Ġcomes": 1656,
      "hip": 1657,
      "line": 1658,
      "ĠBr": 1659,
      "Ġearly": 1660,
      "Ġsleep": 1661,
      "Ġlunch": 1662,
      "Ġswe": 1663,
      "ĠSmith": 1664,
      "ings": 1665,
      "orts": 1666,
      "Ġwrite": 1667,
      "Ġstarted": 1668,
      "It": 1669,
      "ially": 1670,
      "Ġ\"": 1671,
      "Ġwind": 1672,
      "itch": 1673,
      "Ġaren": 1674,
      "ently": 1675,
      "Ġrain": 1676,
      "Ġchildren": 1677,
      "ball": 1678,
      "na": 1679,
      "oup": 1680,
      "Ġsim": 1681,
      "ijing": 1682,
      "Ġcustom": 1683,
      "Ġwouldn": 1684,
      "ĠBeijing": 1685,
      "Ġaccept": 1686,
      "ower": 1687,
      "osit": 1688,
      "Ġappoint": 1689,
      "pr": 1690,
      "ames": 1691,
      "Ġ15": 1692,
      "Ġmaking": 1693,
      "bye": 1694,
      "Ġtast": 1695,
      "Ġconc": 1696,
      "Ġtrying": 1697,
      "Ġreturn": 1698,
      "cri": 1699,
      "ident": 1700,
      "Ġconf": 1701,
      "ision": 1702,
      "Ġpoint": 1703,
      "Ġexactly": 1704,
      "Ġfavorite": 1705,
      "Ġdifficult": 1706,
      "oll": 1707,
      "work": 1708,
      "Ġdet": 1709,
      "Ġpain": 1710,
      "ĠTV": 1711,
      "Ġloc": 1712,
      "Ġshopping": 1713,
      "raw": 1714,
      "Ġprep": 1715,
      "Ġletter": 1716,
      "gram": 1717,
      "Ġreservation": 1718,
      "Ġsummer": 1719,
      "Ġsince": 1720,
      "Ġcouldn": 1721,
      "iec": 1722,
      "side": 1723,
      "Ġalong": 1724,
      "ave": 1725,
      "ming": 1726,
      "zy": 1727,
      "Ġyoung": 1728,
      "Ġhon": 1729,
      "Ġgame": 1730,
      "icy": 1731,
      "Ġleast": 1732,
      "haps": 1733,
      "Ġtop": 1734,
      "Ġtook": 1735,
      "Ġproblems": 1736,
      "Ġproducts": 1737,
      "Ġve": 1738,
      "Ġtot": 1739,
      "Ġsays": 1740,
      "Ġchoose": 1741,
      "fort": 1742,
      "Ġsy": 1743,
      "Ġcame": 1744,
      "Ġreason": 1745,
      "ĠMon": 1746,
      "adam": 1747,
      "Ġgrad": 1748,
      "Ġsales": 1749,
      "Ġwonderful": 1750,
      "ĠAfter": 1751,
      "uss": 1752,
      "Ġreport": 1753,
      "Ġliving": 1754,
      "Ġquick": 1755,
      "Ġconsider": 1756,
      "Ġtest": 1757,
      "Ġmain": 1758,
      "Ġbooks": 1759,
      "Ġpleasure": 1760,
      "Ġsize": 1761,
      "Ġstreet": 1762,
      "Ġword": 1763,
      "Ġprogram": 1764,
      "olut": 1765,
      "Ġduring": 1766,
      "Ġforget": 1767,
      "Ġwasn": 1768,
      "undred": 1769,
      "cess": 1770,
      "man": 1771,
      "ne": 1772,
      "ret": 1773,
      "Ġwithout": 1774,
      "Ġchea": 1775,
      "Ġwhole": 1776,
      "Ġ(": 1777,
      "Ġ)": 1778,
      "ital": 1779,
      "Ġchance": 1780,
      "aturday": 1781,
      "The": 1782,
      "Ġboy": 1783,
      "Ġpict": 1784,
      "ĠSounds": 1785,
      "head": 1786,
      "Ġcouple": 1787,
      "Ġpresent": 1788,
      "rist": 1789,
      "Ġes": 1790,
      "Ġcertainly": 1791,
      "Ġdef": 1792,
      "Ġits": 1793,
      "ĠMe": 1794,
      "Ġ12": 1795,
      "Ġtrouble": 1796,
      "Ġprof": 1797,
      "Ġcolor": 1798,
      "ĠSome": 1799,
      "Ġche": 1800,
      "Ġdrive": 1801,
      "Ġappreciate": 1802,
      "cellent": 1803,
      "ger": 1804,
      "Ġtired": 1805,
      "Ġhundred": 1806,
      "Ġless": 1807,
      "Ġsty": 1808,
      "Ġbuild": 1809,
      "ĠVery": 1810,
      "body": 1811,
      "ling": 1812,
      "pec": 1813,
      "uff": 1814,
      "ility": 1815,
      "ĠPer": 1816,
      "Ġteacher": 1817,
      "band": 1818,
      "ege": 1819,
      "ms": 1820,
      "Ġrequ": 1821,
      "ĠSaturday": 1822,
      "Ġfeeling": 1823,
      "Ġappointment": 1824,
      "ĠTake": 1825,
      "Ġinc": 1826,
      "Ġrep": 1827,
      "Ġlisten": 1828,
      "ton": 1829,
      "Ġpri": 1830,
      "Ġmem": 1831,
      "urance": 1832,
      "Ġcover": 1833,
      "Ġcontract": 1834,
      "Ġmaj": 1835,
      "Ġhold": 1836,
      "ĠMiss": 1837,
      "angu": 1838,
      "Ġexercise": 1839,
      "Ġsn": 1840,
      "friend": 1841,
      "Ġcatch": 1842,
      "ros": 1843,
      "Ġsometimes": 1844,
      "Ġapply": 1845,
      "pecially": 1846,
      "Ġside": 1847,
      "Ġmess": 1848,
      "Ġpur": 1849,
      "Ġforward": 1850,
      "Ġshall": 1851,
      "ecause": 1852,
      "Ġtax": 1853,
      "Ġtow": 1854,
      "Ġworked": 1855,
      "But": 1856,
      "Ġtried": 1857,
      "Ġgen": 1858,
      "Ġeither": 1859,
      "ared": 1860,
      "Ġart": 1861,
      "Ġwaiting": 1862,
      "usband": 1863,
      "Ġhusband": 1864,
      "Ġarri": 1865,
      "ĠChrist": 1866,
      "Ġdecided": 1867,
      "Ġquestion": 1868,
      "Ġquestions": 1869,
      "Ġvacation": 1870,
      "av": 1871,
      "led": 1872,
      "Ġmeans": 1873,
      "Ġuniversity": 1874,
      "Ġsupposed": 1875,
      "ys": 1876,
      "Ġwom": 1877,
      "Ġcop": 1878,
      "Ġlangu": 1879,
      "Ġchang": 1880,
      "Ġneeds": 1881,
      "ĠFirst": 1882,
      "Ġinsurance": 1883,
      "You": 1884,
      "ness": 1885,
      "erve": 1886,
      "Ġlik": 1887,
      "Ġdeposit": 1888,
      "Ġseven": 1889,
      "ume": 1890,
      "Ġpopular": 1891,
      "Ġmajor": 1892,
      "cu": 1893,
      "Ġmother": 1894,
      "Ġhol": 1895,
      "aster": 1896,
      "ĠBecause": 1897,
      "Ġallow": 1898,
      "ĠAmerican": 1899,
      "Ġreceive": 1900,
      "Ġasked": 1901,
      "Ġsalary": 1902,
      "Ġbox": 1903,
      "Ġcomplet": 1904,
      "Ġextra": 1905,
      "Ġterrible": 1906,
      "solut": 1907,
      "Ġcent": 1908,
      "Ġfast": 1909,
      "Ġpiec": 1910,
      "Ġjoin": 1911,
      "Ġchick": 1912,
      "astic": 1913,
      "clock": 1914,
      "Ġbott": 1915,
      "Ġface": 1916,
      "Ġsun": 1917,
      "ween": 1918,
      "Ġmen": 1919,
      "Ġda": 1920,
      "Ġcond": 1921,
      "olog": 1922,
      "Ġfoot": 1923,
      "Ġcollege": 1924,
      "igh": 1925,
      "ature": 1926,
      "Ġpub": 1927,
      "ĠSomet": 1928,
      "Ġlose": 1929,
      "ĠAnything": 1930,
      "Ġfinished": 1931,
      "Ġforeign": 1932,
      "by": 1933,
      "eed": 1934,
      "sh": 1935,
      "esides": 1936,
      "Ġpast": 1937,
      "Ġrate": 1938,
      "Ġfloor": 1939,
      "Ġfoll": 1940,
      "Ġsick": 1941,
      "Ġcool": 1942,
      "Ġhate": 1943,
      "Ġforgot": 1944,
      "Ġprin": 1945,
      "Ġtraffic": 1946,
      "Ġaw": 1947,
      "Ġwine": 1948,
      "Ġdish": 1949,
      "Ġpost": 1950,
      "Ġones": 1951,
      "Ġoutside": 1952,
      "Ġpersonal": 1953,
      "Ġthirty": 1954,
      "itely": 1955,
      "Ġdance": 1956,
      "resh": 1957,
      "Ġtwenty": 1958,
      "solutely": 1959,
      "Ġyeah": 1960,
      "Ġpar": 1961,
      "omp": 1962,
      "aken": 1963,
      "Ġpartic": 1964,
      "Ġspeaking": 1965,
      "Ġrelax": 1966,
      "Ġfollow": 1967,
      "Ġfit": 1968,
      "Ġeff": 1969,
      "Ġpract": 1970,
      "Ġbetween": 1971,
      "Ġsuppose": 1972,
      "Ġattend": 1973,
      "Ġwinter": 1974,
      "Ġespecially": 1975,
      "cle": 1976,
      "Ġahead": 1977,
      "vert": 1978,
      "ĠSir": 1979,
      "initely": 1980,
      "Ġcra": 1981,
      "ised": 1982,
      "ĠBob": 1983,
      "ins": 1984,
      "Ġprov": 1985,
      "Ġdepend": 1986,
      "Ġclear": 1987,
      "Ġpaid": 1988,
      "Ġcondition": 1989,
      "arch": 1990,
      "Ġweight": 1991,
      "ĠBye": 1992,
      "Ġblack": 1993,
      "Ġkids": 1994,
      "Ġmachine": 1995,
      "ru": 1996,
      "Ġi": 1997,
      "elcome": 1998,
      "Ġstuff": 1999,
      "irt": 2000,
      "ails": 2001,
      "Ġtele": 2002,
      "Ġquality": 2003,
      "Ġpark": 2004,
      "Ġ100": 2005,
      "Ġgradu": 2006,
      "sw": 2007,
      "vies": 2008,
      "Ġmil": 2009,
      "Ġfather": 2010,
      "outh": 2011,
      "Ġeight": 2012,
      "stem": 2013,
      "Ġgets": 2014,
      "Ġanyway": 2015,
      "Ġdiscuss": 2016,
      "Ġchicken": 2017,
      "ead": 2018,
      "Ġfig": 2019,
      "ĠWait": 2020,
      "ets": 2021,
      "ĠGo": 2022,
      "ĠJan": 2023,
      "ield": 2024,
      "Ġsale": 2025,
      "ully": 2026,
      "Ġfish": 2027,
      "Ġfix": 2028,
      "ĠWelcome": 2029,
      "Ġmovies": 2030,
      "Ġ30": 2031,
      "Ġswim": 2032,
      "Ġdocu": 2033,
      "Ġey": 2034,
      "Ġstra": 2035,
      "Ġchar": 2036,
      "Ġexcellent": 2037,
      "Ġkinds": 2038,
      "ĠAmerica": 2039,
      "ced": 2040,
      "te": 2041,
      "Ġtaken": 2042,
      "Ġcup": 2043,
      "ĠAh": 2044,
      "ther": 2045,
      "Ġconven": 2046,
      "Ġreading": 2047,
      "Ġreceip": 2048,
      "Ġsystem": 2049,
      "ator": 2050,
      "Ġhea": 2051,
      "Ġonline": 2052,
      "irm": 2053,
      "ĠNice": 2054,
      "ousand": 2055,
      "Ġplaying": 2056,
      "Ġokay": 2057,
      "mas": 2058,
      "Ġbor": 2059,
      "Ġamount": 2060,
      "velop": 2061,
      "Ġpassport": 2062,
      "ug": 2063,
      "vy": 2064,
      "Ġtakes": 2065,
      "Ġcam": 2066,
      "Ġbecome": 2067,
      "ĠAlright": 2068,
      "Ġaddress": 2069,
      "Ġrespons": 2070,
      "Ġpress": 2071,
      "Ġdoor": 2072,
      "ills": 2073,
      "Ġgoods": 2074,
      "Ġsports": 2075,
      "Ġhonest": 2076,
      "ses": 2077,
      "Ġmine": 2078,
      "Ġbar": 2079,
      "Ġproject": 2080,
      "Ġclose": 2081,
      "Ġtickets": 2082,
      "Ġwindow": 2083,
      "min": 2084,
      "Ġthousand": 2085,
      "Ġmag": 2086,
      "ĠTw": 2087,
      "Ġdog": 2088,
      "Ġgoes": 2089,
      "aces": 2090,
      "Ġsingle": 2091,
      "ĠZ": 2092,
      "Ġtem": 2093,
      "ouch": 2094,
      "Ġfall": 2095,
      "Ġann": 2096,
      "ĠYork": 2097,
      "Ġwhite": 2098,
      "ĠJack": 2099,
      "Ġdiscount": 2100,
      "Ġimpress": 2101,
      "ees": 2102,
      "Ġtreat": 2103,
      "Ġball": 2104,
      "iron": 2105,
      "ashion": 2106,
      "Ġfront": 2107,
      "Ġtype": 2108,
      "ĠAbout": 2109,
      "ric": 2110,
      "Ġsound": 2111,
      "ĠLi": 2112,
      "Ġphot": 2113,
      "Ġeyes": 2114,
      "Ġsister": 2115,
      "Ġansw": 2116,
      "ĠTell": 2117,
      "ĠMom": 2118,
      "Ġanyone": 2119,
      "Ġ50": 2120,
      "ĠChristmas": 2121,
      "pect": 2122,
      "ative": 2123,
      "ulations": 2124,
      "ung": 2125,
      "Ġaff": 2126,
      "Ġcountries": 2127,
      "Ġchoice": 2128,
      "IB": 2129,
      "less": 2130,
      "Ġdro": 2131,
      "ĠSp": 2132,
      "Ġstation": 2133,
      "ters": 2134,
      "Ġkitch": 2135,
      "ĠRIB": 2136,
      "Ġkey": 2137,
      "Ġrecently": 2138,
      "Ġtransfer": 2139,
      "edule": 2140,
      "Ġveget": 2141,
      "Ġtotal": 2142,
      "ĠMonday": 2143,
      "Ġstyle": 2144,
      "Ġgener": 2145,
      "con": 2146,
      "rent": 2147,
      "Ġfresh": 2148,
      "uth": 2149,
      "Ġev": 2150,
      "Ġwants": 2151,
      "Ġarr": 2152,
      "Ġadvice": 2153,
      "ross": 2154,
      "Ġkitchen": 2155,
      "30": 2156,
      "els": 2157,
      "Ġexpl": 2158,
      "Ġ200": 2159,
      "Ġperform": 2160,
      "Ġpromot": 2161,
      "Ġmail": 2162,
      "Ġbrother": 2163,
      "ables": 2164,
      "Ġmanage": 2165,
      "Ġdesign": 2166,
      "Ġtraining": 2167,
      "Ġkidding": 2168,
      "Ġsurpr": 2169,
      "Ġreceipt": 2170,
      "cy": 2171,
      "Ġsat": 2172,
      "Ġsoft": 2173,
      "Ġmention": 2174,
      "Ġgone": 2175,
      "Ġsave": 2176,
      "portun": 2177,
      "Ġlovely": 2178,
      "Ġopportun": 2179,
      "Ġinstead": 2180,
      "Ġdirect": 2181,
      "Ġbuilding": 2182,
      "ĠPerhaps": 2183,
      "Ġstraight": 2184,
      "We": 2185,
      "bs": 2186,
      "Ġmadam": 2187,
      "Ġbeh": 2188,
      "Ġworth": 2189,
      "ump": 2190,
      "Ġroad": 2191,
      "airs": 2192,
      "Ġinternet": 2193,
      "ĠSometimes": 2194,
      "Ġconvenient": 2195,
      "cent": 2196,
      "ium": 2197,
      "over": 2198,
      "Ġshoes": 2199,
      "pped": 2200,
      "ountain": 2201,
      "Ġplanning": 2202,
      "ether": 2203,
      "rodu": 2204,
      "Ġleaving": 2205,
      "Ġhandle": 2206,
      "Ġwatching": 2207,
      "Th": 2208,
      "col": 2209,
      "Ġdi": 2210,
      "Ġdouble": 2211,
      "ĠDad": 2212,
      "Ġfamous": 2213,
      "Ġcrazy": 2214,
      "ken": 2215,
      "Ġarea": 2216,
      "ĠMs": 2217,
      "ĠIntern": 2218,
      "Ġlucky": 2219,
      "Ġmedic": 2220,
      "Ġson": 2221,
      "Ġhist": 2222,
      "Ġneigh": 2223,
      "Ġsucc": 2224,
      "Ġlots": 2225,
      "Ġholiday": 2226,
      "Ġneighb": 2227,
      "Ġsuccess": 2228,
      "ience": 2229,
      "nter": 2230,
      "ral": 2231,
      "Ġmid": 2232,
      "Ġben": 2233,
      "Ġwhether": 2234,
      "Ġschedule": 2235,
      "Ġcareful": 2236,
      "Ġdecision": 2237,
      "Ġpublic": 2238,
      "Ġsort": 2239,
      "Ġsoup": 2240,
      "edding": 2241,
      "Ġplans": 2242,
      "Ġdefinitely": 2243,
      "Ġlanguage": 2244,
      "vern": 2245,
      "Ġvar": 2246,
      "Ġapplic": 2247,
      "aby": 2248,
      "Ġinvest": 2249,
      "Ġboard": 2250,
      "Ġstrong": 2251,
      "Ġpromise": 2252,
      "ency": 2253,
      "Ġexciting": 2254,
      "Ġlocal": 2255,
      "Ġtown": 2256,
      "fast": 2257,
      "Ġsent": 2258,
      "Ġmatch": 2259,
      "Ġgrow": 2260,
      "change": 2261,
      "Ġequ": 2262,
      "ĠComp": 2263,
      "ĠBesides": 2264,
      "ants": 2265,
      "Ġcontact": 2266,
      "mp": 2267,
      "oud": 2268,
      "Ġsense": 2269,
      "Ġstep": 2270,
      "ĠLond": 2271,
      "Ġrecord": 2272,
      "Ġparticular": 2273,
      "ĠLondon": 2274,
      "bers": 2275,
      "to": 2276,
      "Ġtouch": 2277,
      "Ġbath": 2278,
      "Ġstock": 2279,
      "Ġheart": 2280,
      "Ġrunning": 2281,
      "Ġlaw": 2282,
      "Ġemployees": 2283,
      "Ġtaste": 2284,
      "Ġanswer": 2285,
      "Ġgames": 2286,
      "Ġitem": 2287,
      "Ġlibr": 2288,
      "Ġship": 2289,
      "ĠJim": 2290,
      "Ġshouldn": 2291,
      "ĠRo": 2292,
      "Ġadvert": 2293,
      "ĠUS": 2294,
      "ĠShall": 2295,
      "ove": 2296,
      "ugg": 2297,
      "Ġwedding": 2298,
      "Ġlow": 2299,
      "uture": 2300,
      "Ġblue": 2301,
      "Ġstudent": 2302,
      "Ġstudents": 2303,
      "Ġhands": 2304,
      "rat": 2305,
      "Ġwall": 2306,
      "rect": 2307,
      "Ġhu": 2308,
      "Ġpe": 2309,
      "ĠWith": 2310,
      "Ġmeat": 2311,
      "Ġdecide": 2312,
      "ances": 2313,
      "Ġwondering": 2314,
      "Ġcollect": 2315,
      "Ġbreakfast": 2316,
      "Ġfilm": 2317,
      "Ġelect": 2318,
      "Ġmist": 2319,
      "Ġfuture": 2320,
      "Ġdist": 2321,
      "Ġgift": 2322,
      "ĠThese": 2323,
      "ĠCl": 2324,
      "Ġamaz": 2325,
      "Ġenv": 2326,
      "Ġtrad": 2327,
      "Ġdesk": 2328,
      "Ġnewsp": 2329,
      "Ġprofess": 2330,
      "Ġlibrary": 2331,
      "son": 2332,
      "Ġfashion": 2333,
      "ĠAcc": 2334,
      "eak": 2335,
      "Ġlonger": 2336,
      "Ġothers": 2337,
      "Ġintrodu": 2338,
      "fortable": 2339,
      "Ġquickly": 2340,
      "Ġide": 2341,
      "eng": 2342,
      "ories": 2343,
      "Ġcann": 2344,
      "ĠDav": 2345,
      "Ġoh": 2346,
      "Ġplaces": 2347,
      "Ġrooms": 2348,
      "ĠMrs": 2349,
      "Ġ25": 2350,
      "Ġdevelop": 2351,
      "Ġfair": 2352,
      "Ġleg": 2353,
      "Ġdeliver": 2354,
      "cript": 2355,
      "gan": 2356,
      "ha": 2357,
      "ots": 2358,
      "ĠBill": 2359,
      "osp": 2360,
      "Ġquiet": 2361,
      "Ġlead": 2362,
      "ording": 2363,
      "Ġsecret": 2364,
      "Ġregular": 2365,
      "Ġstudying": 2366,
      "educ": 2367,
      "Ġpriv": 2368,
      "cel": 2369,
      "ft": 2370,
      "land": 2371,
      "oking": 2372,
      "Ġsong": 2373,
      "Ġfield": 2374,
      "rol": 2375,
      "Ġplenty": 2376,
      "Ġval": 2377,
      "Ġpercent": 2378,
      "Ġdeg": 2379,
      "rench": 2380,
      "Ġfootball": 2381,
      "Ġdepends": 2382,
      "more": 2383,
      "ring": 2384,
      "apan": 2385,
      "Ġdriving": 2386,
      "Ġgirlfriend": 2387,
      "Ġpicture": 2388,
      "Ġcamer": 2389,
      "Ġbenef": 2390,
      "aff": 2391,
      "mit": 2392,
      "Ġice": 2393,
      "Ġhor": 2394,
      "Ġdear": 2395,
      "ising": 2396,
      "Ġclock": 2397,
      "itting": 2398,
      "Ġmod": 2399,
      "Ġbrand": 2400,
      "Ġclasses": 2401,
      "ĠSte": 2402,
      "Ġguys": 2403,
      "Ġeffect": 2404,
      "Ġmagaz": 2405,
      "Ġamazing": 2406,
      "Ġenviron": 2407,
      "What": 2408,
      "Ġeduc": 2409,
      "Ġfurn": 2410,
      "isf": 2411,
      "ĠTr": 2412,
      "ĠSund": 2413,
      "Ġgovern": 2414,
      "Ġexchange": 2415,
      "ongrat": 2416,
      "Ġcompan": 2417,
      "ĠJapan": 2418,
      "Ġimpro": 2419,
      "Ġheavy": 2420,
      "Ġafford": 2421,
      "Ġenvironment": 2422,
      "Ġlat": 2423,
      "Ġusing": 2424,
      "ĠFrench": 2425,
      "Ġeng": 2426,
      "Ġguest": 2427,
      "ĠNothing": 2428,
      "Ġattention": 2429,
      "Ġexample": 2430,
      "Ġexcited": 2431,
      "Ġpiece": 2432,
      "nect": 2433,
      "Ġsand": 2434,
      "Ġhit": 2435,
      "Ġbaby": 2436,
      "Ġpot": 2437,
      "Ġland": 2438,
      "Ġnerv": 2439,
      "Ġnecess": 2440,
      "Ġasking": 2441,
      "ĠPeople": 2442,
      "Ġgrand": 2443,
      "Ġpolice": 2444,
      "Ġcheap": 2445,
      "ospital": 2446,
      "Ġcat": 2447,
      "chn": 2448,
      "Ġste": 2449,
      "ĠMost": 2450,
      "urs": 2451,
      "Ġsaying": 2452,
      "itional": 2453,
      "Ġgirls": 2454,
      "Ġcorrect": 2455,
      "med": 2456,
      "Ġ/": 2457,
      "Ġpair": 2458,
      "iced": 2459,
      "Ġknew": 2460,
      "ĠGet": 2461,
      "ape": 2462,
      "Ġdifference": 2463,
      "Ġbedroom": 2464,
      "Ġsatisf": 2465,
      "ĠDavid": 2466,
      "Ġz": 2467,
      "ote": 2468,
      "Ġdiet": 2469,
      "ĠHmm": 2470,
      "ĠMany": 2471,
      "Ġseeing": 2472,
      "raph": 2473,
      "Ġcompet": 2474,
      "Ġflow": 2475,
      "Ġresult": 2476,
      "Ġblood": 2477,
      "Ġfinal": 2478,
      "Ġskin": 2479,
      "Ġfru": 2480,
      "Ġdelic": 2481,
      "Ġlearned": 2482,
      "Ġhurry": 2483,
      "Ġfigure": 2484,
      "Ġarrange": 2485,
      "ĠSunday": 2486,
      "Ġcompanies": 2487,
      "com": 2488,
      "Ġdream": 2489,
      "Ġorgan": 2490,
      "iew": 2491,
      "Ġclub": 2492,
      "ude": 2493,
      "Ġpayment": 2494,
      "Ġcarry": 2495,
      "Ġglass": 2496,
      "Ġlearning": 2497,
      "Ġcurrent": 2498,
      "Ġdaught": 2499,
      "Ġperformance": 2500,
      "ongratulations": 2501,
      "dle": 2502,
      "mail": 2503,
      "Ġcake": 2504,
      "Ġfre": 2505,
      "Ġgreen": 2506,
      "ĠTai": 2507,
      "Ġsuper": 2508,
      "Ġworried": 2509,
      "Ġspace": 2510,
      "Ġview": 2511,
      "Ġoper": 2512,
      "Ġeating": 2513,
      "Ġenjoyed": 2514,
      "ĠAnyway": 2515,
      "Ġswimming": 2516,
      "den": 2517,
      "fully": 2518,
      "ma": 2519,
      "por": 2520,
      "Ġcamp": 2521,
      "ester": 2522,
      "ĠTues": 2523,
      "Ġbeer": 2524,
      "Ġbeach": 2525,
      "Ġegg": 2526,
      "ĠMike": 2527,
      "Ġexcept": 2528,
      "Ġprices": 2529,
      "Ġsmoking": 2530,
      "Ġsweet": 2531,
      "Ġwords": 2532,
      "ĠTwo": 2533,
      "ĠTuesday": 2534,
      "Ġmot": 2535,
      "Ġmountain": 2536,
      "Ġcas": 2537,
      "Ġhum": 2538,
      "Ġhospital": 2539,
      "Ġstaff": 2540,
      "road": 2541,
      "Ġabsolutely": 2542,
      "Ġsol": 2543,
      "selves": 2544,
      "Ġwriting": 2545,
      "Ġcontin": 2546,
      "Ġplane": 2547,
      "Ġrelations": 2548,
      "Ġcosts": 2549,
      "uggage": 2550,
      "ah": 2551,
      "ĠID": 2552,
      "Ġdanc": 2553,
      "Ġluggage": 2554,
      "Ġgave": 2555,
      "elf": 2556,
      "Ġwithin": 2557,
      "Ġnotice": 2558,
      "ored": 2559,
      "ppy": 2560,
      "Ġanymore": 2561,
      "ĠGive": 2562,
      "aged": 2563,
      "Ġjobs": 2564,
      "Ġopin": 2565,
      "Ġcounter": 2566,
      "Ġsimple": 2567,
      "Ġdetails": 2568,
      "Ġapplication": 2569,
      "Ġgovernment": 2570,
      "How": 2571,
      "bo": 2572,
      "cial": 2573,
      "ives": 2574,
      "ients": 2575,
      "Ġsight": 2576,
      "ony": 2577,
      "Ġfly": 2578,
      "Ġpat": 2579,
      "Ġsomewhere": 2580,
      "ĠGr": 2581,
      "Ġclim": 2582,
      "anger": 2583,
      "Ġdriver": 2584,
      "Ġtyp": 2585,
      "Ġassist": 2586,
      "conom": 2587,
      "Ġmedicine": 2588,
      "Ġhistory": 2589,
      "Ġcannot": 2590,
      "Ġnervous": 2591,
      "aw": 2592,
      "Ġri": 2593,
      "oub": 2594,
      "Ġcap": 2595,
      "Ġdam": 2596,
      "ĠWas": 2597,
      "Ġwash": 2598,
      "Ġworks": 2599,
      "ĠPet": 2600,
      "Ġride": 2601,
      "Ġ11": 2602,
      "Ġhealthy": 2603,
      "Ġwoman": 2604,
      "Ġcopy": 2605,
      "Ġvegetables": 2606,
      "Ġprivate": 2607,
      "Ġmater": 2608,
      "Ġfif": 2609,
      "Ġcomfortable": 2610,
      "Ġtelling": 2611,
      "Ġbuying": 2612,
      "Ġresume": 2613,
      "Ġfinally": 2614,
      "Ġdrinks": 2615,
      "ancy": 2616,
      "phone": 2617,
      "Ġreceived": 2618,
      "Ġdaughter": 2619,
      "ym": 2620,
      "Ġce": 2621,
      "ically": 2622,
      "Ġtechn": 2623,
      "Ġhigher": 2624,
      "Ġinside": 2625,
      "Ġcooking": 2626,
      "Ġtaxi": 2627,
      "Ġprovide": 2628,
      "ĠCompany": 2629,
      "gy": 2630,
      "ned": 2631,
      "Ġyours": 2632,
      "unk": 2633,
      "ertific": 2634,
      "ĠKe": 2635,
      "ĠEverything": 2636,
      "Ġgiven": 2637,
      "Ġconcert": 2638,
      "Ġincre": 2639,
      "Ġlatest": 2640,
      "ration": 2641,
      "ĠQ": 2642,
      "Ġser": 2643,
      "Ġbreat": 2644,
      "ĠSus": 2645,
      "ional": 2646,
      "Ġstar": 2647,
      "Ġstress": 2648,
      "ĠNext": 2649,
      "Ġ19": 2650,
      "Ġcars": 2651,
      "Ġattract": 2652,
      "Ġearl": 2653,
      "Ġregister": 2654,
      "Ġairport": 2655,
      "Ġcorner": 2656,
      "Ġpackage": 2657,
      "ney": 2658,
      "Ġmessage": 2659,
      "Ġdocuments": 2660,
      "Ġitems": 2661,
      "cription": 2662,
      "dy": 2663,
      "mb": 2664,
      "ina": 2665,
      "Ġnine": 2666,
      "ĠWang": 2667,
      "Ġmeal": 2668,
      "Ġeye": 2669,
      "Ġkill": 2670,
      "Ġconnect": 2671,
      "unately": 2672,
      "Ġloan": 2673,
      "Ġovertime": 2674,
      "ĠGoodbye": 2675,
      "Ġfamil": 2676,
      "Ġbother": 2677,
      "Ġdeli": 2678,
      "Ġsubway": 2679,
      "Ġmenu": 2680,
      "Ġparking": 2681,
      "Ġbehind": 2682,
      "Ġnecessary": 2683,
      "iod": 2684,
      "unt": 2685,
      "ware": 2686,
      "rees": 2687,
      "ones": 2688,
      "Ġpan": 2689,
      "Ġpounds": 2690,
      "Ġlately": 2691,
      "Ġob": 2692,
      "ilities": 2693,
      "Ġspent": 2694,
      "Ġround": 2695,
      "eful": 2696,
      "Ġperiod": 2697,
      "Ġskills": 2698,
      "Ġenter": 2699,
      "Ġlikes": 2700,
      "oc": 2701,
      "Ġcream": 2702,
      "Ġanim": 2703,
      "icle": 2704,
      "Ġbeef": 2705,
      "ĠIsn": 2706,
      "ache": 2707,
      "Ġcourses": 2708,
      "Ġchocol": 2709,
      "Ġcustomers": 2710,
      "Ġprepare": 2711,
      "Ġcheaper": 2712,
      "Ġtemper": 2713,
      "ĠInternet": 2714,
      "Ġmaterial": 2715,
      "ĠSusan": 2716,
      "ior": 2717,
      "Ġaut": 2718,
      "Ġcal": 2719,
      "Ġgym": 2720,
      "ĠHot": 2721,
      "Ġsea": 2722,
      "ĠDan": 2723,
      "amb": 2724,
      "antastic": 2725,
      "Ġappro": 2726,
      "Ġwarm": 2727,
      "Ġcustomer": 2728,
      "Ġrequire": 2729,
      "Ġdrop": 2730,
      "ĠSteven": 2731,
      "Ġimprove": 2732,
      "And": 2733,
      "io": 2734,
      "wan": 2735,
      "ze": 2736,
      "onna": 2737,
      "Ġfat": 2738,
      "Ġfift": 2739,
      "ĠDep": 2740,
      "cks": 2741,
      "Ġcontrol": 2742,
      "ĠShan": 2743,
      "Ġpolicy": 2744,
      "Ġindust": 2745,
      "Ġnewspaper": 2746,
      "gage": 2747,
      "me": 2748,
      "Ġfur": 2749,
      "Ġlab": 2750,
      "Ġiss": 2751,
      "Ġstate": 2752,
      "Ġshare": 2753,
      "Ġsem": 2754,
      "ĠDay": 2755,
      "Ġur": 2756,
      "Ġsometime": 2757,
      "Ġhappens": 2758,
      "Ġpurch": 2759,
      "Ġcompletely": 2760,
      "Ġflowers": 2761,
      "Ġdelicious": 2762,
      "Ġdelivery": 2763,
      "Ġbur": 2764,
      "ecking": 2765,
      "ĠGod": 2766,
      "Ġproper": 2767,
      "Ġfee": 2768,
      "ĠDidn": 2769,
      "ĠUniversity": 2770,
      "Ġbroke": 2771,
      "Ġsnow": 2772,
      "Ġexplain": 2773,
      "Ġmanagement": 2774,
      "ĠTaiwan": 2775,
      "Ġopinion": 2776,
      "--": 2777,
      "draw": 2778,
      "iqu": 2779,
      "ted": 2780,
      "Ġcents": 2781,
      "arm": 2782,
      "ica": 2783,
      "ghai": 2784,
      "Ġshirt": 2785,
      "Ġju": 2786,
      "Ġord": 2787,
      "Ġbrought": 2788,
      "Ġagainst": 2789,
      "Ġdead": 2790,
      "Ġsalad": 2791,
      "Ġslow": 2792,
      "Ġinternational": 2793,
      "ĠJane": 2794,
      "Ġfruit": 2795,
      "Ġtall": 2796,
      "Ġgra": 2797,
      "Ġgonna": 2798,
      "ĠThose": 2799,
      "ĠMark": 2800,
      "ĠBl": 2801,
      "Ġwilling": 2802,
      "Ġrid": 2803,
      "Ġaccident": 2804,
      "Ġgroup": 2805,
      "Ġcommun": 2806,
      "Ġhurt": 2807,
      "cribe": 2808,
      "Ġdishes": 2809,
      "Ġpractice": 2810,
      "Ġcharac": 2811,
      "ale": 2812,
      "Ġsqu": 2813,
      "Ġborrow": 2814,
      "iture": 2815,
      "Ġfire": 2816,
      "Ġpull": 2817,
      "vers": 2818,
      "Ġwebs": 2819,
      "Ġwithdraw": 2820,
      "Ġchecking": 2821,
      "Ġworse": 2822,
      "Ġprocess": 2823,
      "Ġring": 2824,
      "Ġclos": 2825,
      "ission": 2826,
      "Ġfunny": 2827,
      "Ġcomplain": 2828,
      "Ġpictures": 2829,
      "Ġchanged": 2830,
      "Ġliked": 2831,
      "Ġtelephone": 2832,
      "ursday": 2833,
      "medi": 2834,
      "So": 2835,
      "Ġthrow": 2836,
      "ĠâĢĿ": 2837,
      "Ġreach": 2838,
      "ĠOr": 2839,
      "ĠMake": 2840,
      "Ġalright": 2841,
      "essert": 2842,
      "Ġrush": 2843,
      "Ġ18": 2844,
      "Ġtruth": 2845,
      "Ġremind": 2846,
      "Ġterms": 2847,
      "Ġthird": 2848,
      "Ġopportunity": 2849,
      "nis": 2850,
      "ann": 2851,
      "Ġdessert": 2852,
      "lebr": 2853,
      "Ġabroad": 2854,
      "ope": 2855,
      "Ġtwice": 2856,
      "Ġbooked": 2857,
      "Ġcards": 2858,
      "Ġsett": 2859,
      "Ġcelebr": 2860,
      "bit": 2861,
      "hy": 2862,
      "let": 2863,
      "set": 2864,
      "Ġsil": 2865,
      "rew": 2866,
      "Ġmill": 2867,
      "enny": 2868,
      "Ġhoney": 2869,
      "Ġhung": 2870,
      "iter": 2871,
      "estern": 2872,
      "illy": 2873,
      "ĠBank": 2874,
      "Ġtrade": 2875,
      "Ġmoved": 2876,
      "Ġpaying": 2877,
      "ograph": 2878,
      "Ġmiddle": 2879,
      "Ġcamera": 2880,
      "Ġeducation": 2881,
      "Ġrelationship": 2882,
      "Ġearlier": 2883,
      "iar": 2884,
      "Ġill": 2885,
      "Ġhang": 2886,
      "Ġdark": 2887,
      "Ġlic": 2888,
      "ution": 2889,
      "ĠMa": 2890,
      "Ġsection": 2891,
      "ĠCongratulations": 2892,
      "Ġalone": 2893,
      "une": 2894,
      "ized": 2895,
      "ĠUm": 2896,
      "Ġsupport": 2897,
      "Ġservices": 2898,
      "Ġ40": 2899,
      "Ġbottle": 2900,
      "Ġideas": 2901,
      "Ġresults": 2902,
      "Ġchocolate": 2903,
      "ĠShanghai": 2904,
      "five": 2905,
      "hib": 2906,
      "Ġbody": 2907,
      "orth": 2908,
      "Ġdry": 2909,
      "Ġnatur": 2910,
      "ety": 2911,
      "ĠThursday": 2912,
      "Ġredu": 2913,
      "Ġseason": 2914,
      "pping": 2915,
      "Ġoil": 2916,
      "Ġocc": 2917,
      "aret": 2918,
      "Ġroll": 2919,
      "Ġimmedi": 2920,
      "ips": 2921,
      "Ġturned": 2922,
      "ĠBrown": 2923,
      "ology": 2924,
      "Ġfurniture": 2925,
      "Ġfifteen": 2926,
      "Ġfurther": 2927,
      "50": 2928,
      "bed": 2929,
      "my": 2930,
      "pos": 2931,
      "Ġways": 2932,
      "Ġpoll": 2933,
      "Ġgar": 2934,
      "Ġgas": 2935,
      "ĠYuan": 2936,
      "eag": 2937,
      "ĠRem": 2938,
      "Ġquit": 2939,
      "ences": 2940,
      "Ġwomen": 2941,
      "Ġboring": 2942,
      "Ġresponsible": 2943,
      "Ġpressure": 2944,
      "Ġdegree": 2945,
      "ĠHotel": 2946,
      "Ġdraw": 2947,
      "Ġpity": 2948,
      "Ġcancel": 2949,
      "Ġeconom": 2950,
      "Ġstory": 2951,
      "Ġspeed": 2952,
      "Ġimag": 2953,
      "Ġkept": 2954,
      "Ġchecked": 2955,
      "Ġblock": 2956,
      "ĠOnly": 2957,
      "Ġtennis": 2958,
      "Ġcommon": 2959,
      "Ġbroken": 2960,
      "Ġbeginning": 2961,
      "Ġintroduce": 2962,
      "If": 2963,
      "oke": 2964,
      "itive": 2965,
      "ĠWor": 2966,
      "idence": 2967,
      "ĠAd": 2968,
      "imum": 2969,
      "ified": 2970,
      "Ġnote": 2971,
      "ĠWhite": 2972,
      "ured": 2973,
      "Ġrout": 2974,
      "Ġplayer": 2975,
      "Ġactiv": 2976,
      "Ġstaying": 2977,
      "ival": 2978,
      "Ġpromotion": 2979,
      "ĠRoom": 2980,
      "He": 2981,
      "XX": 2982,
      "pri": 2983,
      "tain": 2984,
      "vin": 2985,
      "vious": 2986,
      "we": 2987,
      "Ġage": 2988,
      "Ġcult": 2989,
      "Ġsho": 2990,
      "Ġsold": 2991,
      "ĠLike": 2992,
      "Ġspring": 2993,
      "ĠPro": 2994,
      "ference": 2995,
      "Ġcoat": 2996,
      "Ġmoving": 2997,
      "Ġflat": 2998,
      "Ġsmell": 2999,
      "Ġaccording": 3000,
      "Ġcolleag": 3001,
      "Ġmilk": 3002,
      "Ġdancing": 3003,
      "ĠPeter": 3004,
      "Ġsemester": 3005,
      "Ġjuice": 3006,
      "Ġhungry": 3007,
      "co": 3008,
      "oice": 3009,
      "ination": 3010,
      "Ġchat": 3011,
      "Ġbal": 3012,
      "Ġfight": 3013,
      "Ġfund": 3014,
      "Ġdoub": 3015,
      "Ġlower": 3016,
      "ĠAust": 3017,
      "ĠEven": 3018,
      "apers": 3019,
      "Ġsmart": 3020,
      "Ġfinanc": 3021,
      "ĠStreet": 3022,
      "Ġeasier": 3023,
      "Ġmissed": 3024,
      "Ġsitu": 3025,
      "Ġsubject": 3026,
      "Ġallowed": 3027,
      "Ġfifty": 3028,
      "book": 3029,
      "ces": 3030,
      "used": 3031,
      "Ġwalking": 3032,
      "Ġcertain": 3033,
      "Ġhob": 3034,
      "Ġfail": 3035,
      "ĠMan": 3036,
      "ĠMar": 3037,
      "Ġcharg": 3038,
      "ĠLast": 3039,
      "Ġanywhere": 3040,
      "arden": 3041,
      "ules": 3042,
      "ĠGu": 3043,
      "Ġspicy": 3044,
      "ĠPa": 3045,
      "ists": 3046,
      "ĠExactly": 3047,
      "Ġcareer": 3048,
      "Ġeasily": 3049,
      "wards": 3050,
      "ibility": 3051,
      "Ġbags": 3052,
      "Ġconcer": 3053,
      "Ġarrive": 3054,
      "Ġed": 3055,
      "Ġest": 3056,
      "Ġfantastic": 3057,
      "lect": 3058,
      "ĠHong": 3059,
      "Ġlooked": 3060,
      "Ġquar": 3061,
      "ĠHappy": 3062,
      "Ġstarting": 3063,
      "ĠStates": 3064,
      "Ġscen": 3065,
      "Ġdrinking": 3066,
      "Ġinvol": 3067,
      "Ġbread": 3068,
      "Ġexpected": 3069,
      "Ġconfirm": 3070,
      "Ġconditions": 3071,
      "Ġmotor": 3072,
      "ket": 3073,
      "li": 3074,
      "oun": 3075,
      "Ġcrow": 3076,
      "Ġpic": 3077,
      "Ġrese": 3078,
      "ute": 3079,
      "ĠSu": 3080,
      "ĠNever": 3081,
      "ĠEu": 3082,
      "Ġ16": 3083,
      "Ġeverybody": 3084,
      "Ġopt": 3085,
      "izz": 3086,
      "ĠShould": 3087,
      "Ġgiving": 3088,
      "Ġshipment": 3089,
      "Ġmistake": 3090,
      "Ġtemperature": 3091,
      "Ġcrowd": 3092,
      "gar": 3093,
      "gent": 3094,
      "Ġcell": 3095,
      "Ġcig": 3096,
      "orn": 3097,
      "orge": 3098,
      "Ġfac": 3099,
      "Ġlarg": 3100,
      "Ġnon": 3101,
      "arant": 3102,
      "Ġstick": 3103,
      "ĠItal": 3104,
      "ĠLin": 3105,
      "Ġspare": 3106,
      "ĠEm": 3107,
      "ĠPark": 3108,
      "Ġoffic": 3109,
      "Ġnose": 3110,
      "action": 3111,
      "Ġinvite": 3112,
      "Ġseats": 3113,
      "Ġcaught": 3114,
      "Ġprepared": 3115,
      "Ġmiles": 3116,
      "Ġneighbor": 3117,
      "Ġwebsite": 3118,
      "oid": 3119,
      "Ġbon": 3120,
      "Ġdut": 3121,
      "Ġforty": 3122,
      "ĠHis": 3123,
      "ĠAr": 3124,
      "elt": 3125,
      "adays": 3126,
      "Ġchall": 3127,
      "Ġknows": 3128,
      "Ġspot": 3129,
      "ĠPr": 3130,
      "ĠJul": 3131,
      "istration": 3132,
      "Ġvide": 3133,
      "vings": 3134,
      "Ġhomework": 3135,
      "Ġnights": 3136,
      "Ġraise": 3137,
      "Ġmarri": 3138,
      "Ġstandard": 3139,
      "board": 3140,
      "ĠAustral": 3141,
      "aim": 3142,
      "lor": 3143,
      "nes": 3144,
      "Ġtough": 3145,
      "anna": 3146,
      "Ġfare": 3147,
      "Ġang": 3148,
      "Ġnet": 3149,
      "ĠâĢľ": 3150,
      "Ġsteak": 3151,
      "ĠMadam": 3152,
      "ĠCar": 3153,
      "Ġsup": 3154,
      "Ġnoticed": 3155,
      "ĠHowever": 3156,
      "ilt": 3157,
      "Ġdeep": 3158,
      "Ġfault": 3159,
      "Ġ500": 3160,
      "Ġfactory": 3161,
      "ĠPaul": 3162,
      "app": 3163,
      "eal": 3164,
      "go": 3165,
      "zen": 3166,
      "Ġtie": 3167,
      "Ġach": 3168,
      "Ġband": 3169,
      "ĠSince": 3170,
      "ĠOly": 3171,
      "Ġjour": 3172,
      "Ġbud": 3173,
      "Ġcalls": 3174,
      "Ġperhaps": 3175,
      "Ġdollar": 3176,
      "Ġapolog": 3177,
      "ground": 3178,
      "Ġinstru": 3179,
      "ĠEveryone": 3180,
      "Ġlights": 3181,
      "Ġsmoke": 3182,
      "Ġincluded": 3183,
      "Ġgives": 3184,
      "fortunately": 3185,
      "Ġboxes": 3186,
      "Ġdivor": 3187,
      "Ġadvertise": 3188,
      "ertificate": 3189,
      "Ġincrease": 3190,
      "Ġanimals": 3191,
      "ĠOlymp": 3192,
      "ped": 3193,
      "sc": 3194,
      "ĠInd": 3195,
      "read": 3196,
      "Ġmix": 3197,
      "anch": 3198,
      "Ġbra": 3199,
      "Ġpoor": 3200,
      "Ġnorm": 3201,
      "ĠHoney": 3202,
      "irts": 3203,
      "ĠGreen": 3204,
      "ellow": 3205,
      "Ġneeded": 3206,
      "Ġflu": 3207,
      "ĠUh": 3208,
      "Ġhoping": 3209,
      "Ġshows": 3210,
      "Ġpassed": 3211,
      "Ġexpecting": 3212,
      "ĠAnn": 3213,
      "Ġincluding": 3214,
      "Ġreasonable": 3215,
      "Ġindustry": 3216,
      "Ġlicense": 3217,
      "ĠRemember": 3218,
      "aking": 3219,
      "hood": 3220,
      "wise": 3221,
      "Ġet": 3222,
      "Ġtur": 3223,
      "erry": 3224,
      "anish": 3225,
      "Ġfaster": 3226,
      "Ġdem": 3227,
      "ĠWed": 3228,
      "ĠThree": 3229,
      "icated": 3230,
      "ĠSe": 3231,
      "Ġstom": 3232,
      "Ġsuits": 3233,
      "umn": 3234,
      "useum": 3235,
      "Ġtrust": 3236,
      "Ġguarant": 3237,
      "Ġfinding": 3238,
      "ipe": 3239,
      "Ġcomputers": 3240,
      "Ġtransport": 3241,
      "Ġmarketing": 3242,
      "ĠToday": 3243,
      "Ġsweater": 3244,
      "Ġtotally": 3245,
      "Ġborn": 3246,
      "Ġbenefits": 3247,
      "Ġfamiliar": 3248,
      "Ġimmediately": 3249,
      "Ġfinancial": 3250,
      "nesday": 3251,
      "ĠWednesday": 3252,
      "ole": 3253,
      "top": 3254,
      "ying": 3255,
      "Ġdue": 3256,
      "Ġdanger": 3257,
      "ises": 3258,
      "ley": 3259,
      "Ġsearch": 3260,
      "Ġexhib": 3261,
      "Ġrice": 3262,
      "Ġrules": 3263,
      "Ġexpress": 3264,
      "Ġscore": 3265,
      "Ġvisa": 3266,
      "ĠUnited": 3267,
      "ĠAbsolutely": 3268,
      "They": 3269,
      "Ġmembers": 3270,
      "Thank": 3271,
      "Ġbathroom": 3272,
      "Ġtraditional": 3273,
      "Ġeggs": 3274,
      "Ġnatural": 3275,
      "Ġresearch": 3276,
      "That": 3277,
      "Ġow": 3278,
      "Ġmood": 3279,
      "Ġhous": 3280,
      "Ġfelt": 3281,
      "Ġdad": 3282,
      "Ġdra": 3283,
      "ĠâĢĶ": 3284,
      "ooper": 3285,
      "ĠMich": 3286,
      "ĠBet": 3287,
      "urity": 3288,
      "estival": 3289,
      "Ġwhatever": 3290,
      "ĠGer": 3291,
      "Ġrad": 3292,
      "Ġhelpful": 3293,
      "Ġinspect": 3294,
      "ployment": 3295,
      "Ġbaggage": 3296,
      "Ġinclude": 3297,
      "Ġcovered": 3298,
      "Ġcenter": 3299,
      "Ġpieces": 3300,
      "Ġprint": 3301,
      "Ġsuccessful": 3302,
      "Ġengine": 3303,
      "Ġpurchase": 3304,
      "Ġcolleagues": 3305,
      "Ġdoubt": 3306,
      "Ġvideo": 3307,
      "light": 3308,
      "vision": 3309,
      "Ġwake": 3310,
      "Ġbat": 3311,
      "vell": 3312,
      "ĠYear": 3313,
      "alent": 3314,
      "ĠSar": 3315,
      "ĠSay": 3316,
      "rib": 3317,
      "ĠMac": 3318,
      "Ġkil": 3319,
      "Ġjump": 3320,
      "Ġwashing": 3321,
      "ĠLu": 3322,
      "Ġupset": 3323,
      "ĠPl": 3324,
      "Ġrich": 3325,
      "Ġclients": 3326,
      "Ġprot": 3327,
      "Ġhimself": 3328,
      "Ġearth": 3329,
      "Ġlaund": 3330,
      "Ġbasket": 3331,
      "ledge": 3332,
      "Ġgraduate": 3333,
      "ĠSpanish": 3334,
      "Ġguests": 3335,
      "Ġcigaret": 3336,
      "Ġstomach": 3337,
      "lo": 3338,
      "ply": 3339,
      "ĠX": 3340,
      "Ġtill": 3341,
      "int": 3342,
      "isk": 3343,
      "Ġgarden": 3344,
      "ĠHar": 3345,
      "Ġmeals": 3346,
      "Ġweak": 3347,
      "ĠOff": 3348,
      "iring": 3349,
      "Ġwaste": 3350,
      "ilar": 3351,
      "ĠFrom": 3352,
      "Ġhelping": 3353,
      "ĠRob": 3354,
      "Ġhasn": 3355,
      "Ġmoder": 3356,
      "Ġkeeps": 3357,
      "ĠAlso": 3358,
      "Ġformal": 3359,
      "Ġpleasant": 3360,
      "Ġcheese": 3361,
      "Ġbottom": 3362,
      "Ġgeneral": 3363,
      "Ġsurprised": 3364,
      "Ġprofessional": 3365,
      "Ġsecretary": 3366,
      "ĠKeep": 3367,
      "ĠEuro": 3368,
      "Ġbonus": 3369,
      "Ġmarriage": 3370,
      "Ġapologize": 3371,
      "uce": 3372,
      "Ġtight": 3373,
      "Ġsitting": 3374,
      "Ġcart": 3375,
      "Ġport": 3376,
      "Ġpower": 3377,
      "ĠMmm": 3378,
      "tery": 3379,
      "Ġnegot": 3380,
      "Ġchamp": 3381,
      "itten": 3382,
      "Ġstarts": 3383,
      "Ġplayed": 3384,
      "Ġleaves": 3385,
      "Ġdisapp": 3386,
      "Ġground": 3387,
      "Ġfax": 3388,
      "Ġagreement": 3389,
      "Ġadvance": 3390,
      "Ġtraveling": 3391,
      "Ġpainting": 3392,
      "Ġmagazine": 3393,
      "Ġcontinue": 3394,
      "Ġsituation": 3395,
      "Ġlaundry": 3396,
      "Ġnegoti": 3397,
      "bing": 3398,
      "ps": 3399,
      "Ġtext": 3400,
      "ined": 3401,
      "rest": 3402,
      "Ġcreat": 3403,
      "Ġcause": 3404,
      "Ġbri": 3405,
      "Ġbright": 3406,
      "Ġpet": 3407,
      "Ġpool": 3408,
      "vey": 3409,
      "Ġnut": 3410,
      "Ġlives": 3411,
      "Ġneck": 3412,
      "Ġexcuse": 3413,
      "Ġuseful": 3414,
      "ĠPC": 3415,
      "ĠPre": 3416,
      "ĠPar": 3417,
      "ĠJenny": 3418,
      "Ġenc": 3419,
      "Ġener": 3420,
      "Ġbuilt": 3421,
      "Ġarm": 3422,
      "aker": 3423,
      "itted": 3424,
      "Ġfoods": 3425,
      "Ġphys": 3426,
      "Ġbigger": 3427,
      "Ġkeeping": 3428,
      "Ġschools": 3429,
      "Ġlevel": 3430,
      "Ġinvited": 3431,
      "Ġsuggestions": 3432,
      "Ġboyfriend": 3433,
      "Ġtelevision": 3434,
      "Ġdocument": 3435,
      "Ġimpressed": 3436,
      "Ġsoftware": 3437,
      "Ġattractive": 3438,
      "izza": 3439,
      "cer": 3440,
      "night": 3441,
      "ugh": 3442,
      "wich": 3443,
      "Ġwra": 3444,
      "Ġmouth": 3445,
      "Ġfried": 3446,
      "ison": 3447,
      "Ġpush": 3448,
      "Ġant": 3449,
      "ĠHer": 3450,
      "Ġshape": 3451,
      "ĠCor": 3452,
      "Ġability": 3453,
      "ĠBar": 3454,
      "ĠRich": 3455,
      "ĠCanad": 3456,
      "Ġcock": 3457,
      "Ġ24": 3458,
      "Ġreserve": 3459,
      "Ġdescribe": 3460,
      "Ġcolors": 3461,
      "Ġnearly": 3462,
      "Ġlistening": 3463,
      "Ġsurprise": 3464,
      "ĠAccount": 3465,
      "Ġcampus": 3466,
      "Ġangry": 3467,
      "ires": 3468,
      "kes": 3469,
      "market": 3470,
      "Ġ:": 3471,
      "Ġrom": 3472,
      "Ġmis": 3473,
      "Ġbow": 3474,
      "Ġbase": 3475,
      "itude": 3476,
      "oming": 3477,
      "Ġbeat": 3478,
      "Ġren": 3479,
      "ĠApri": 3480,
      "Ġstories": 3481,
      "Ġsport": 3482,
      "acks": 3483,
      "Ġnowadays": 3484,
      "Ġsafe": 3485,
      "ĠOnce": 3486,
      "Ġski": 3487,
      "Ġprescription": 3488,
      "Ġmedium": 3489,
      "Ġstores": 3490,
      "Ġprograms": 3491,
      "Ġdogs": 3492,
      "Ġvarious": 3493,
      "Ġdelivered": 3494,
      "Ġissue": 3495,
      "ĠApril": 3496,
      "Do": 3497,
      "fl": 3498,
      "gency": 3499,
      "rant": 3500,
      "atives": 3501,
      "Ġcab": 3502,
      "Ġcooper": 3503,
      "Ġbike": 3504,
      "Ġpm": 3505,
      "Ġpen": 3506,
      "Ġreview": 3507,
      "ĠChe": 3508,
      "Ġchann": 3509,
      "Ġknowledge": 3510,
      "Ġusual": 3511,
      "Ġamong": 3512,
      "Ġspo": 3513,
      "Ġru": 3514,
      "Ġfeet": 3515,
      "ished": 3516,
      "Ġ14": 3517,
      "Ġnoise": 3518,
      "Ġeveryday": 3519,
      "Ġguide": 3520,
      "Ġcarp": 3521,
      "Ġmonthly": 3522,
      "Ġ300": 3523,
      "Ġdecl": 3524,
      "Ġstayed": 3525,
      "Ġspecific": 3526,
      "Ġvisiting": 3527,
      "Ġwearing": 3528,
      "Ġcleaning": 3529,
      "Ġmachines": 3530,
      "Ġsimply": 3531,
      "Ġpaint": 3532,
      "Ġarrived": 3533,
      "Ġgraduated": 3534,
      "ĠZh": 3535,
      "Ġphotos": 3536,
      "Ġhuge": 3537,
      "ĠJapanese": 3538,
      "Ġimagine": 3539,
      "ĠAustralia": 3540,
      "Ġowe": 3541,
      "ĠOffice": 3542,
      "ĠEurope": 3543,
      "May": 3544,
      "iel": 3545,
      "pose": 3546,
      "vent": 3547,
      "Ġserve": 3548,
      "Ġfirm": 3549,
      "Ġloud": 3550,
      "ĠWon": 3551,
      "arling": 3552,
      "ĠTra": 3553,
      "ential": 3554,
      "Ġcand": 3555,
      "the": 3556,
      "Ġheld": 3557,
      "ept": 3558,
      "Ġbye": 3559,
      "Ġwritten": 3560,
      "Ġfriendly": 3561,
      "Ġmostly": 3562,
      "Ġshower": 3563,
      "Ġolder": 3564,
      "Ġretire": 3565,
      "Ġnearby": 3566,
      "Ġheadache": 3567,
      "argain": 3568,
      "ĠQu": 3569,
      "Ġurgent": 3570,
      "Ġcommunic": 3571,
      "de": 3572,
      "ror": 3573,
      "val": 3574,
      "Ġwood": 3575,
      "Ġfile": 3576,
      "Ġdest": 3577,
      "Ġlos": 3578,
      "aring": 3579,
      "idge": 3580,
      "ĠCent": 3581,
      "ify": 3582,
      "Ġsugar": 3583,
      "Ġplastic": 3584,
      "Ġhelps": 3585,
      "Ġclaim": 3586,
      "Ġload": 3587,
      "Ġbuses": 3588,
      "Ġeverywhere": 3589,
      "employment": 3590,
      "Ġappet": 3591,
      "Ġadm": 3592,
      "Ġharder": 3593,
      "place": 3594,
      "upid": 3595,
      "rency": 3596,
      "Ġunderstanding": 3597,
      "Ġ80": 3598,
      "Ġfilms": 3599,
      "ĠTomorrow": 3600,
      "Ġcrit": 3601,
      "Ġrefund": 3602,
      "Ġdetail": 3603,
      "Ġequip": 3604,
      "Ġmagazines": 3605,
      "Ġcrowded": 3606,
      "BA": 3607,
      "gest": 3608,
      "men": 3609,
      "ners": 3610,
      "ron": 3611,
      "Ġwanna": 3612,
      "Ġcere": 3613,
      "Ġcir": 3614,
      "Ġtor": 3615,
      "ĠTry": 3616,
      "ĠHold": 3617,
      "ĠSec": 3618,
      "rible": 3619,
      "irty": 3620,
      "ĠCal": 3621,
      "Ġjam": 3622,
      "urch": 3623,
      "ctions": 3624,
      "ĠEl": 3625,
      "Ġconference": 3626,
      "Ġhelped": 3627,
      "obile": 3628,
      "Ġbrown": 3629,
      "Ġhardly": 3630,
      "Ġbiggest": 3631,
      "Ġscared": 3632,
      "Ġwatched": 3633,
      "Ġacross": 3634,
      "Ġrespect": 3635,
      "Ġpoints": 3636,
      "Ġopportunities": 3637,
      "Ġhuh": 3638,
      "Ġmodel": 3639,
      "Ġsandwich": 3640,
      "Ġhuman": 3641,
      "Ġassistant": 3642,
      "Ġmaterials": 3643,
      "Ġcelebrate": 3644,
      "Ġmillion": 3645,
      "Ġinvolved": 3646,
      "Ġbudget": 3647,
      "Can": 3648,
      "bec": 3649,
      "hen": 3650,
      "uri": 3651,
      "Ġ0": 3652,
      "Ġmuseum": 3653,
      "Ġcable": 3654,
      "Ġcities": 3655,
      "Ġtooth": 3656,
      "Ġbargain": 3657,
      "itation": 3658,
      "Ġnational": 3659,
      "ownt": 3660,
      "ĠAm": 3661,
      "ĠMore": 3662,
      "ĠWhatever": 3663,
      "ops": 3664,
      "Ġhell": 3665,
      "pper": 3666,
      "Ġorig": 3667,
      "Ġourselves": 3668,
      "acket": 3669,
      "Ġfees": 3670,
      "Ġ13": 3671,
      "Ġagre": 3672,
      "Ġbranch": 3673,
      "Ġparts": 3674,
      "ĠKong": 3675,
      "Ġtalked": 3676,
      "Ġmarry": 3677,
      "Ġstrange": 3678,
      "Ġstrict": 3679,
      "Ġsuitable": 3680,
      "Ġdirector": 3681,
      "Ġvalue": 3682,
      "Ġsupermarket": 3683,
      "Ġsquare": 3684,
      "Ġactivities": 3685,
      "Ġmodern": 3686,
      "ael": 3687,
      "ks": 3688,
      "tle": 3689,
      "Ġtree": 3690,
      "erved": 3691,
      "Ġsilly": 3692,
      "oting": 3693,
      "Ġmark": 3694,
      "orter": 3695,
      "Ġdig": 3696,
      "Ġdownt": 3697,
      "Ġnob": 3698,
      "Ġeffic": 3699,
      "Ġstre": 3700,
      "Ġstamp": 3701,
      "Ġabs": 3702,
      "amed": 3703,
      "Ġjo": 3704,
      "Ġheat": 3705,
      "ĠEn": 3706,
      "Ġfever": 3707,
      "Ġloves": 3708,
      "Ġunemployment": 3709,
      "Ġdecor": 3710,
      "Ġscience": 3711,
      "iction": 3712,
      "Ġmath": 3713,
      "Ġopening": 3714,
      "Ġsmaller": 3715,
      "Ġproduction": 3716,
      "Ġadvant": 3717,
      "Ġwarrant": 3718,
      "ĠMonica": 3719,
      "Ġlanguages": 3720,
      "Ġchanges": 3721,
      "Ġcomplete": 3722,
      "Ġfixed": 3723,
      "Ġvariet": 3724,
      "Ġelectric": 3725,
      "Ġdamage": 3726,
      "Ġautom": 3727,
      "Ġorders": 3728,
      "ĠItalian": 3729,
      "Ġduty": 3730,
      "ĠProf": 3731,
      "Ġdangerous": 3732,
      "Ġorigin": 3733,
      "Ġnobody": 3734,
      "da": 3735,
      "moking": 3736,
      "nic": 3737,
      "ued": 3738,
      "Ġsad": 3739,
      "Ġsam": 3740,
      "Ġtoast": 3741,
      "Ġbi": 3742,
      "Ġfell": 3743,
      "Ġpie": 3744,
      "Ġlap": 3745,
      "Ġliter": 3746,
      "eth": 3747,
      "Ġmeas": 3748,
      "Ġstri": 3749,
      "ird": 3750,
      "irus": 3751,
      "stairs": 3752,
      "Ġknown": 3753,
      "ĠList": 3754,
      "ĠGot": 3755,
      "ĠDoctor": 3756,
      "Ġclosed": 3757,
      "icks": 3758,
      "Ġrob": 3759,
      "Ġsaf": 3760,
      "Ġsauce": 3761,
      "Ġfeels": 3762,
      "Ġuncle": 3763,
      "Ġhire": 3764,
      "Ġnumbers": 3765,
      "ples": 3766,
      "Ġemail": 3767,
      "Ġproduce": 3768,
      "Ġpacking": 3769,
      "Ġsimilar": 3770,
      "Ġdaily": 3771,
      "Ġachieve": 3772,
      "Ġguarantee": 3773,
      "case": 3774,
      "dden": 3775,
      "tes": 3776,
      "inary": 3777,
      "Ġpage": 3778,
      "ows": 3779,
      "ĠHu": 3780,
      "Ġmeant": 3781,
      "Ġlim": 3782,
      "Ġlimit": 3783,
      "ĠOct": 3784,
      "Ġemer": 3785,
      "Ġstupid": 3786,
      "ĠCity": 3787,
      "ĠDr": 3788,
      "Ġsocial": 3789,
      "ifts": 3790,
      "Ġsudden": 3791,
      "ards": 3792,
      "ĠFin": 3793,
      "ĠRes": 3794,
      "Ġvoice": 3795,
      "Ġroses": 3796,
      "Ġads": 3797,
      "ngth": 3798,
      "Ġminimum": 3799,
      "Ġordered": 3800,
      "Ġcomplicated": 3801,
      "Ġpromised": 3802,
      "Ġlaugh": 3803,
      "Ġavoid": 3804,
      "Ġcurrency": 3805,
      "ĠBrit": 3806,
      "Ġdirectly": 3807,
      "Ġorganiz": 3808,
      "Ġbreath": 3809,
      "Ġregistered": 3810,
      "Ġcharacter": 3811,
      "Ġchalleng": 3812,
      "Ġradio": 3813,
      "Ġprotect": 3814,
      "Ġbasketball": 3815,
      "Ġdowntown": 3816,
      "Ġstrength": 3817,
      "ls": 3818,
      "sy": 3819,
      "uf": 3820,
      "Ġtend": 3821,
      "Ġwet": 3822,
      "rem": 3823,
      "Ġpian": 3824,
      "Ġdozen": 3825,
      "iff": 3826,
      "ĠGe": 3827,
      "Ġoverse": 3828,
      "Ġsavings": 3829,
      "Ġbackground": 3830,
      "ĠUs": 3831,
      "ension": 3832,
      "Ġcarefully": 3833,
      "gging": 3834,
      "ĠJoe": 3835,
      "Ġsurf": 3836,
      "Ġindeed": 3837,
      "Ġhurts": 3838,
      "Ġselling": 3839,
      "Ġlocated": 3840,
      "Ġyounger": 3841,
      "Ġcases": 3842,
      "Ġflying": 3843,
      "ĠGrand": 3844,
      "ĠDaniel": 3845,
      "ique": 3846,
      "Ġexhibition": 3847,
      "load": 3848,
      "ĠPretty": 3849,
      "ĠParis": 3850,
      "Ġencour": 3851,
      "ĠListen": 3852,
      "Would": 3853,
      "bar": 3854,
      "bly": 3855,
      "par": 3856,
      "ury": 3857,
      "Ġut": 3858,
      "Ġcertificate": 3859,
      "ane": 3860,
      "isa": 3861,
      "Ġpizza": 3862,
      "Ġbell": 3863,
      "Ġgold": 3864,
      "ĠCur": 3865,
      "ĠDe": 3866,
      "Ġchurch": 3867,
      "ĠLee": 3868,
      "ulous": 3869,
      "ober": 3870,
      "Ġvol": 3871,
      "Ġvote": 3872,
      "Ġages": 3873,
      "Ġunf": 3874,
      "Ġleather": 3875,
      "Ġaccounting": 3876,
      "Ġrare": 3877,
      "ĠAlice": 3878,
      "cient": 3879,
      "ivid": 3880,
      "Ġcommission": 3881,
      "Ġseriously": 3882,
      "Ġassign": 3883,
      "Ġhorrible": 3884,
      "Ġsatisfied": 3885,
      "poration": 3886,
      "Ġpicnic": 3887,
      "ĠLucy": 3888,
      "Ġcarpet": 3889,
      "There": 3890,
      "bies": 3891,
      "ians": 3892,
      "ipped": 3893,
      "mates": 3894,
      "ta": 3895,
      "eren": 3896,
      "Ġmall": 3897,
      "Ġmap": 3898,
      "Ġcine": 3899,
      "Ġcross": 3900,
      "inger": 3901,
      "isle": 3902,
      "ĠWere": 3903,
      "Ġhall": 3904,
      "Ġlif": 3905,
      "ĠSouth": 3906,
      "see": 3907,
      "ources": 3908,
      "Ġchem": 3909,
      "ardon": 3910,
      "ĠPerson": 3911,
      "Ġran": 3912,
      "Ġtrack": 3913,
      "Ġstudied": 3914,
      "Ġsuppl": 3915,
      "Ġpleased": 3916,
      "Ġmeters": 3917,
      "Ġterribly": 3918,
      "Ġfully": 3919,
      "Ġbased": 3920,
      "Ġ150": 3921,
      "Ġawful": 3922,
      "ĠBlack": 3923,
      "Ġoccas": 3924,
      "Ġconcerned": 3925,
      "Ġlarger": 3926,
      "ĠMichael": 3927,
      "ĠCanada": 3928,
      "Ġrenew": 3929,
      "Ġvariety": 3930,
      "ĠOctober": 3931,
      "Ġoverseas": 3932,
      "hol": 3933,
      "Ġauth": 3934,
      "Ġfool": 3935,
      "Ġdial": 3936,
      "Ġdarling": 3937,
      "omas": 3938,
      "icles": 3939,
      "Ġbear": 3940,
      "idays": 3941,
      "ĠSept": 3942,
      "elve": 3943,
      "Ġgod": 3944,
      "Ġshot": 3945,
      "Ġsepar": 3946,
      "ĠCool": 3947,
      "ado": 3948,
      "ĠBoth": 3949,
      "though": 3950,
      "iling": 3951,
      "Ġspl": 3952,
      "Ġconst": 3953,
      "Ġsurely": 3954,
      "Ġarg": 3955,
      "achel": 3956,
      "Ġtravell": 3957,
      "Ġsched": 3958,
      "Ġboat": 3959,
      "Ġbeauty": 3960,
      "ĠFrank": 3961,
      "Ġ60": 3962,
      "Ġexpenses": 3963,
      "Ġemployee": 3964,
      "Ġsuggestion": 3965,
      "Ġelev": 3966,
      "Ġbasic": 3967,
      "Ġtastes": 3968,
      "Ġpresentation": 3969,
      "Ġaware": 3970,
      "rupt": 3971,
      "together": 3972,
      "Ġsettled": 3973,
      "ĠGerman": 3974,
      "ĠProfess": 3975,
      "25": 3976,
      "My": 3977,
      "uly": 3978,
      "year": 3979,
      "itor": 3980,
      "Ġpo": 3981,
      "oms": 3982,
      "exic": 3983,
      "Ġfort": 3984,
      "ĠHas": 3985,
      "ĠHope": 3986,
      "iding": 3987,
      "Ġlift": 3988,
      "riger": 3989,
      "ĠCon": 3990,
      "ĠBen": 3991,
      "Ġbutton": 3992,
      "Ġasleep": 3993,
      "Ġsomebody": 3994,
      "Ġcomb": 3995,
      "inda": 3996,
      "Ġplus": 3997,
      "Ġrange": 3998,
      "Ġaffect": 3999,
      "ĠRose": 4000,
      "Ġclient": 4001,
      "Ġgotten": 4002,
      "Ġrock": 4003,
      "agne": 4004,
      "Ġarrest": 4005,
      "ĠCheck": 4006,
      "Ġ21": 4007,
      "Ġscr": 4008,
      "Ġscreen": 4009,
      "Ġinviting": 4010,
      "Ġaccounts": 4011,
      "Ġlived": 4012,
      "ĠFrance": 4013,
      "Ġregistration": 4014,
      "Ġrealize": 4015,
      "Ġsurvey": 4016,
      "Ġexams": 4017,
      "Ġfiles": 4018,
      "Ġentertain": 4019,
      "Ġcute": 4020,
      "Ġ90": 4021,
      "Ġdirection": 4022,
      "Ġrefriger": 4023,
      "Ġaccepted": 4024,
      "Ġrequest": 4025,
      "Ġarticle": 4026,
      "Ġcentre": 4027,
      "Ġimpression": 4028,
      "ĠWorld": 4029,
      "Ġbalance": 4030,
      "Ġinspection": 4031,
      "ĠSeptember": 4032,
      "45": 4033,
      "ald": 4034,
      "cast": 4035,
      "hold": 4036,
      "iol": 4037,
      "law": 4038,
      "Ġtrees": 4039,
      "ero": 4040,
      "using": 4041,
      "Ġself": 4042,
      "Ġwestern": 4043,
      "Ġcri": 4044,
      "Ġhost": 4045,
      "isy": 4046,
      "Ġpapers": 4047,
      "Ġlay": 4048,
      "Ġgate": 4049,
      "asons": 4050,
      "Ġshut": 4051,
      "Ġnotes": 4052,
      "ceed": 4053,
      "indy": 4054,
      "ĠEr": 4055,
      "ĠPh": 4056,
      "ief": 4057,
      "aches": 4058,
      "Ġappear": 4059,
      "ablish": 4060,
      "Ġaccess": 4061,
      "ĠExcellent": 4062,
      "ossible": 4063,
      "play": 4064,
      "Ġhighly": 4065,
      "Ġtrains": 4066,
      "Ġforms": 4067,
      "ĠAmericans": 4068,
      "Ġexperienc": 4069,
      "Ġchoices": 4070,
      "Ġdressed": 4071,
      "Ġincludes": 4072,
      "Ġletters": 4073,
      "Ġprofit": 4074,
      "ĠSomeone": 4075,
      "Ġholidays": 4076,
      "Ġclearly": 4077,
      "Ġevents": 4078,
      "Ġpotat": 4079,
      "Ġfrequ": 4080,
      "cohol": 4081,
      "Ġquarter": 4082,
      "ĠJulia": 4083,
      "Ġtransportation": 4084,
      "Ġcandid": 4085,
      "Ġtorn": 4086,
      "Ġlaptop": 4087,
      "ĠGeorge": 4088,
      "ĠProfessor": 4089,
      "how": 4090,
      "hand": 4091,
      "Ġcry": 4092,
      "Ġhat": 4093,
      "ites": 4094,
      "ism": 4095,
      "Ġgain": 4096,
      "ĠTay": 4097,
      "ĠApp": 4098,
      "Ġlie": 4099,
      "ĠSam": 4100,
      "Ġstuck": 4101,
      "ĠMorning": 4102,
      "ĠMexic": 4103,
      "Ġselect": 4104,
      "ĠCindy": 4105,
      "acy": 4106,
      "ĠBus": 4107,
      "Ġplant": 4108,
      "epend": 4109,
      "Ġroast": 4110,
      "Ġnovel": 4111,
      "Ġtwelve": 4112,
      "Ġexport": 4113,
      "Ġproud": 4114,
      "ĠAren": 4115,
      "Ġcode": 4116,
      "Ġapple": 4117,
      "efore": 4118,
      "Ġparties": 4119,
      "Ġperf": 4120,
      "Ġbecoming": 4121,
      "Ġident": 4122,
      "Ġputting": 4123,
      "Ġdepress": 4124,
      "ĠEngland": 4125,
      "Ġactive": 4126,
      "Ġsecurity": 4127,
      "Ġsky": 4128,
      "Ġopened": 4129,
      "Ġpositive": 4130,
      "Ġdressing": 4131,
      "Ġbills": 4132,
      "Ġmedical": 4133,
      "ĠUnfortunately": 4134,
      "Ġ120": 4135,
      "Ġrepair": 4136,
      "Ġpersonality": 4137,
      "Ġfigures": 4138,
      "Ġwallet": 4139,
      "ĠWashing": 4140,
      "ĠDepartment": 4141,
      "Ġsilk": 4142,
      "ography": 4143,
      "Ġneighborhood": 4144,
      "Ġdisappoint": 4145,
      "Ġhello": 4146,
      "ufact": 4147,
      "Ġcinema": 4148,
      "BC": 4149,
      "ey": 4150,
      "iest": 4151,
      "ipping": 4152,
      "rate": 4153,
      "rated": 4154,
      "zz": 4155,
      "ering": 4156,
      "eral": 4157,
      "Ġaisle": 4158,
      "Ġsouth": 4159,
      "Ġmaster": 4160,
      "atic": 4161,
      "atures": 4162,
      "Ġbesides": 4163,
      "Ġfed": 4164,
      "Ġpal": 4165,
      "Ġlad": 4166,
      "ĠTime": 4167,
      "ases": 4168,
      "key": 4169,
      "Ġrecept": 4170,
      "verage": 4171,
      "elen": 4172,
      "ĠOther": 4173,
      "term": 4174,
      "ama": 4175,
      "ĠBefore": 4176,
      "urse": 4177,
      "Ġexact": 4178,
      "ĠPut": 4179,
      "venue": 4180,
      "Ġoffers": 4181,
      "Ġthemselves": 4182,
      "Ġnoon": 4183,
      "Ġexpert": 4184,
      "Ġprevious": 4185,
      "Ġmanufact": 4186,
      "mercial": 4187,
      "Ġdrug": 4188,
      "Ġcontrib": 4189,
      "Ġacting": 4190,
      "Ġaction": 4191,
      "Ġattitude": 4192,
      "Ġskirt": 4193,
      "Ġstopped": 4194,
      "Ġpresident": 4195,
      "Ġrestaurants": 4196,
      "Ġstanding": 4197,
      "ĠPerfect": 4198,
      "Ġboarding": 4199,
      "ĠAccording": 4200,
      "Ġmountains": 4201,
      "Ġeconomy": 4202,
      "Ġsuperv": 4203,
      "Ġnormal": 4204,
      "ĠSarah": 4205,
      "Ġequipment": 4206,
      "Ġagreed": 4207,
      "Ġelevator": 4208,
      "Ġrefrigerator": 4209,
      "ĠTaylor": 4210,
      "Here": 4211,
      "cut": 4212,
      "hou": 4213,
      "rance": 4214,
      "teen": 4215,
      "under": 4216,
      "Ġer": 4217,
      "Ġthin": 4218,
      "Ġsides": 4219,
      "oted": 4220,
      "Ġweren": 4221,
      "Ġbid": 4222,
      "Ġdied": 4223,
      "Ġancient": 4224,
      "Ġnorth": 4225,
      "ased": 4226,
      "Ġincome": 4227,
      "Ġareas": 4228,
      "ĠServ": 4229,
      "Ġgoal": 4230,
      "Ġje": 4231,
      "antic": 4232,
      "Ġbutter": 4233,
      "ĠLinda": 4234,
      "Ġgoodbye": 4235,
      "Ġorange": 4236,
      "ulation": 4237,
      "Ġplum": 4238,
      "ĠJason": 4239,
      "Ġlock": 4240,
      "Ġviol": 4241,
      "ability": 4242,
      "Ġdepart": 4243,
      "Ġclassical": 4244,
      "ĠKing": 4245,
      "ĠShow": 4246,
      "Ġadditional": 4247,
      "Ġended": 4248,
      "Ġmissing": 4249,
      "Ġsinging": 4250,
      "Ġperfectly": 4251,
      "Ġsmooth": 4252,
      "Ġbasis": 4253,
      "Ġveh": 4254,
      "Ġapplying": 4255,
      "Ġmessages": 4256,
      "Ġcopies": 4257,
      "Ġrelaxing": 4258,
      "Ġimpressive": 4259,
      "ĠInternational": 4260,
      "Ġmistakes": 4261,
      "Ġdevelopment": 4262,
      "Ġlegal": 4263,
      "Ġsongs": 4264,
      "Ġsolve": 4265,
      "Ġjourney": 4266,
      "Ġdemand": 4267,
      "Ġchampagne": 4268,
      "Ġenergy": 4269,
      "Ġlosing": 4270,
      "seeing": 4271,
      "Ġreception": 4272,
      "ffer": 4273,
      "house": 4274,
      "Ġsou": 4275,
      "Ġsen": 4276,
      "Ġsle": 4277,
      "Ġmass": 4278,
      "Ġdat": 4279,
      "Ġlady": 4280,
      "ĠWall": 4281,
      "ĠWestern": 4282,
      "ĠTa": 4283,
      "Ġreplace": 4284,
      "ĠABC": 4285,
      "rill": 4286,
      "Ġstorm": 4287,
      "Ġshirts": 4288,
      "ĠDec": 4289,
      "ĠBel": 4290,
      "eaking": 4291,
      "ĠGl": 4292,
      "Ġplat": 4293,
      "ĠPM": 4294,
      "olen": 4295,
      "istry": 4296,
      "Ġ17": 4297,
      "Ġkeys": 4298,
      "Ġunit": 4299,
      "Ġplayers": 4300,
      "Ġseemed": 4301,
      "Ġenjoying": 4302,
      "Ġfoc": 4303,
      "Ġmeetings": 4304,
      "ĠFranc": 4305,
      "Ġdelay": 4306,
      "Ġimpossible": 4307,
      "Ġspending": 4308,
      "Ġinstall": 4309,
      "ibly": 4310,
      "ification": 4311,
      "Ġindepend": 4312,
      "Ġsubs": 4313,
      "Ġconfident": 4314,
      "Ġchanging": 4315,
      "Ġrelaxed": 4316,
      "Ġrecords": 4317,
      "Ġadvertising": 4318,
      "Ġserved": 4319,
      "Ġcharacters": 4320,
      "Ġculture": 4321,
      "Ġhobbies": 4322,
      "Ġfailed": 4323,
      "Ġestablish": 4324,
      "ĠZhang": 4325,
      "ĠQuite": 4326,
      "ĠWashington": 4327,
      "10": 4328,
      "Is": 4329,
      "ds": 4330,
      "gress": 4331,
      "mate": 4332,
      "nal": 4333,
      "oors": 4334,
      "Ġtail": 4335,
      "erk": 4336,
      "Ġsens": 4337,
      "Ġmas": 4338,
      "Ġharm": 4339,
      "Ġdom": 4340,
      "Ġlob": 4341,
      "Ġloss": 4342,
      "arp": 4343,
      "ĠThomas": 4344,
      "ĠHelen": 4345,
      "ales": 4346,
      "Ġears": 4347,
      "Ġshy": 4348,
      "Ġsuffer": 4349,
      "ural": 4350,
      "urry": 4351,
      "ĠLe": 4352,
      "uled": 4353,
      "ĠJones": 4354,
      "ĠJune": 4355,
      "Ġbucks": 4356,
      "Ġshowing": 4357,
      "Ġfav": 4358,
      "Ġlease": 4359,
      "ĠStop": 4360,
      "ĠStud": 4361,
      "Ġtaught": 4362,
      "Ġrelig": 4363,
      "Ġstops": 4364,
      "Ġweekends": 4365,
      "Ġsurv": 4366,
      "Ġtraveler": 4367,
      "Ġteams": 4368,
      "Ġpale": 4369,
      "Ġtests": 4370,
      "Ġstyles": 4371,
      "Ġmember": 4372,
      "Ġfishing": 4373,
      "Ġresponsibility": 4374,
      "Ġannual": 4375,
      "Ġdegrees": 4376,
      "Ġclimate": 4377,
      "Ġtypes": 4378,
      "Ġconnection": 4379,
      "Ġrequirements": 4380,
      "Ġordinary": 4381,
      "Ġslowly": 4382,
      "Ġpollution": 4383,
      "ĠProbably": 4384,
      "ĠRobert": 4385,
      "Ġwrap": 4386,
      "ĠRichard": 4387,
      "Ġrule": 4388,
      "Ġdeclare": 4389,
      "Ġdigital": 4390,
      "Ġwarranty": 4391,
      "ĠUsually": 4392,
      "55": 4393,
      "Let": 4394,
      "uc": 4395,
      "Ġtalent": 4396,
      "Ġaud": 4397,
      "Ġaverage": 4398,
      "uses": 4399,
      "Ġwa": 4400,
      "Ġmad": 4401,
      "att": 4402,
      "Ġcous": 4403,
      "Ġhom": 4404,
      "Ġfries": 4405,
      "Ġgifts": 4406,
      "Ġnic": 4407,
      "ĠWind": 4408,
      "ĠTer": 4409,
      "Ġinit": 4410,
      "alog": 4411,
      "ĠSing": 4412,
      "ental": 4413,
      "Ġstolen": 4414,
      "ĠMc": 4415,
      "ĠMum": 4416,
      "ĠColl": 4417,
      "Ġabove": 4418,
      "Ġjoking": 4419,
      "Ġchess": 4420,
      "Ġalcohol": 4421,
      "ĠEach": 4422,
      "asty": 4423,
      "Ġconvers": 4424,
      "Ġoffices": 4425,
      "Ġquant": 4426,
      "aging": 4427,
      "Ġperm": 4428,
      "eria": 4429,
      "Ġdrunk": 4430,
      "Ġmax": 4431,
      "Ġremain": 4432,
      "Ġattach": 4433,
      "Ġswitch": 4434,
      "Ġinvitation": 4435,
      "Ġaccountant": 4436,
      "Ġbrings": 4437,
      "Ġadded": 4438,
      "iversary": 4439,
      "Ġslip": 4440,
      "Ġlazy": 4441,
      "Ġdealing": 4442,
      "Ġincred": 4443,
      "Ġmemory": 4444,
      "Ġannoy": 4445,
      "Ġinvestment": 4446,
      "Ġlegs": 4447,
      "Ġtypical": 4448,
      "ambling": 4449,
      "ĠDeposit": 4450,
      "Ġreduce": 4451,
      "going": 4452,
      "Ġdivorce": 4453,
      "Ġetc": 4454,
      "Ġbrief": 4455,
      "ĠPCC": 4456,
      "Ġsafety": 4457,
      "Ġemergency": 4458,
      "Ġoccasion": 4459,
      "20": 4460,
      "Could": 4461,
      "avor": 4462,
      "back": 4463,
      "bie": 4464,
      "give": 4465,
      "iving": 4466,
      "just": 4467,
      "mother": 4468,
      "ss": 4469,
      "yd": 4470,
      "zhou": 4471,
      "Ġsus": 4472,
      "Ġwild": 4473,
      "Ġmang": 4474,
      "Ġcre": 4475,
      "lla": 4476,
      "Ġdie": 4477,
      "Ġhabit": 4478,
      "ĠYep": 4479,
      "alt": 4480,
      "ĠSa": 4481,
      "ĠSally": 4482,
      "ĠSand": 4483,
      "ĠSue": 4484,
      "imate": 4485,
      "Ġstat": 4486,
      "Ġstraw": 4487,
      "roat": 4488,
      "Ġshelf": 4489,
      "ĠCD": 4490,
      "Ġkick": 4491,
      "ĠDef": 4492,
      "ams": 4493,
      "Ġworst": 4494,
      "Ġpropos": 4495,
      "Ġspir": 4496,
      "osh": 4497,
      "ĠFair": 4498,
      "Ġrisk": 4499,
      "ĠJames": 4500,
      "aren": 4501,
      "Ġagency": 4502,
      "Ġnoisy": 4503,
      "ĠChen": 4504,
      "agement": 4505,
      "efully": 4506,
      "Ġunits": 4507,
      "izes": 4508,
      "Ġblow": 4509,
      "Ġmeaning": 4510,
      "Ġdisplay": 4511,
      "Ġshowed": 4512,
      "Ġbadly": 4513,
      "Ġrelated": 4514,
      "Ġearn": 4515,
      "ĠLooks": 4516,
      "Ġinterviewer": 4517,
      "Ġfilled": 4518,
      "Ġseconds": 4519,
      "ibilities": 4520,
      "Ġqualified": 4521,
      "Ġentrance": 4522,
      "ĠAnother": 4523,
      "iece": 4524,
      "retch": 4525,
      "ĠLiu": 4526,
      "Ġglasses": 4527,
      "Ġsightseeing": 4528,
      "Ġlabor": 4529,
      "Ġhobby": 4530,
      "Ġcharges": 4531,
      "Ġcigarettes": 4532,
      "ĠSecond": 4533,
      "Ġmeasure": 4534,
      "Ġsuddenly": 4535,
      "remely": 4536,
      "Ġpiano": 4537,
      "Ġdisappointed": 4538,
      "Ġjeans": 4539,
      "ĠFrancis": 4540,
      "Ġfavour": 4541,
      "bits": 4542,
      "food": 4543,
      "hile": 4544,
      "ris": 4545,
      "rack": 4546,
      "Ġthroat": 4547,
      "Ġyellow": 4548,
      "Ġban": 4549,
      "Ġbite": 4550,
      "Ġfits": 4551,
      "Ġdiv": 4552,
      "isor": 4553,
      "Ġpound": 4554,
      "Ġanal": 4555,
      "ĠToo": 4556,
      "ĠTurn": 4557,
      "ended": 4558,
      "ĠHurry": 4559,
      "ĠAug": 4560,
      "ĠSch": 4561,
      "ĠSpr": 4562,
      "eless": 4563,
      "ĠOver": 4564,
      "Ġgolf": 4565,
      "ĠCard": 4566,
      "oods": 4567,
      "ĠLo": 4568,
      "ĠLily": 4569,
      "Ġanytime": 4570,
      "ĠGen": 4571,
      "Ġworkers": 4572,
      "Ġworksh": 4573,
      "Ġoutd": 4574,
      "ĠPoor": 4575,
      "ĠFore": 4576,
      "ĠFive": 4577,
      "ĠFestival": 4578,
      "Ġrough": 4579,
      "Ġvill": 4580,
      "Ġvirus": 4581,
      "Ġapples": 4582,
      "Ġ26": 4583,
      "Ġflavor": 4584,
      "Ġreserved": 4585,
      "eech": 4586,
      "Ġchecks": 4587,
      "ĠExp": 4588,
      "Ġowners": 4589,
      "Ġcomplim": 4590,
      "Ġextremely": 4591,
      "Ġsinger": 4592,
      "ĠJohnson": 4593,
      "Ġpolit": 4594,
      "Ġindivid": 4595,
      "Ġsixty": 4596,
      "Ġterrific": 4597,
      "Ġwarning": 4598,
      "Ġcru": 4599,
      "Ġseller": 4600,
      "Ġraining": 4601,
      "Ġchequ": 4602,
      "Ġparticip": 4603,
      "Ġpractical": 4604,
      "ĠZina": 4605,
      "Ġfalling": 4606,
      "Ġannoun": 4607,
      "Ġanniversary": 4608,
      "Ġhandsome": 4609,
      "Ġideal": 4610,
      "Ġeffects": 4611,
      "Ġcatalog": 4612,
      "Ġzoo": 4613,
      "Ġcompetition": 4614,
      "Ġcasual": 4615,
      "Ġproperty": 4616,
      "XXXX": 4617,
      "ĠOlympic": 4618,
      "Ġhouses": 4619,
      "Ġcockt": 4620,
      "Ġcooperation": 4621,
      "ĠWonder": 4622,
      "Ġretirement": 4623,
      "Ġappetiz": 4624,
      "Ġoriginal": 4625,
      "Ġliterature": 4626,
      "Ġsupplies": 4627,
      "Ġauthor": 4628,
      "Ġdepressed": 4629,
      "ĠDefinitely": 4630,
      "15": 4631,
      "SA": 4632,
      "cing": 4633,
      "eel": 4634,
      "hod": 4635,
      "met": 4636,
      "mony": 4637,
      "smoking": 4638,
      "Ġing": 4639,
      "Ġess": 4640,
      "Ġsite": 4641,
      "Ġwire": 4642,
      "Ġmobile": 4643,
      "Ġtheater": 4644,
      "Ġble": 4645,
      "Ġbun": 4646,
      "Ġbunch": 4647,
      "Ġfol": 4648,
      "Ġfancy": 4649,
      "Ġpin": 4650,
      "Ġpork": 4651,
      "Ġlend": 4652,
      "ĠTed": 4653,
      "ĠThings": 4654,
      "entle": 4655,
      "Ġstretch": 4656,
      "Ġjacket": 4657,
      "oph": 4658,
      "Ġchips": 4659,
      "Ġthinks": 4660,
      "ĠLove": 4661,
      "quet": 4662,
      "Ġspell": 4663,
      "ĠRom": 4664,
      "istic": 4665,
      "agers": 4666,
      "ĠChar": 4667,
      "ĠVI": 4668,
      "Ġcourt": 4669,
      "ĠHaven": 4670,
      "Ġappli": 4671,
      "Ġloved": 4672,
      "Ġunb": 4673,
      "Ġgrown": 4674,
      "Ġdeserve": 4675,
      "standing": 4676,
      "Ġterm": 4677,
      "Ġsuitcase": 4678,
      "Ġtourist": 4679,
      "Ġbroad": 4680,
      "Ġsleeping": 4681,
      "Ġsweat": 4682,
      "Ġhonor": 4683,
      "Ġarticles": 4684,
      "Ġforgotten": 4685,
      "ĠRoad": 4686,
      "Ġcameras": 4687,
      "ĠTrue": 4688,
      "Ġpatient": 4689,
      "Ġdamaged": 4690,
      "Ġwashed": 4691,
      "Ġobject": 4692,
      "bedroom": 4693,
      "weight": 4694,
      "Ġoptions": 4695,
      "Ġadvertisement": 4696,
      "Ġcirc": 4697,
      "Ġstamps": 4698,
      "ĠEnjoy": 4699,
      "sych": 4700,
      "Ġscheduled": 4701,
      "Ġperfume": 4702,
      "Ġvehicle": 4703,
      "Ġingred": 4704,
      "She": 4705,
      "ca": 4706,
      "cip": 4707,
      "ker": 4708,
      "rict": 4709,
      "uct": 4710,
      "you": 4711,
      "Ġtv": 4712,
      "Ġtit": 4713,
      "Ġtag": 4714,
      "inum": 4715,
      "Ġcough": 4716,
      "Ġtheat": 4717,
      "Ġbicy": 4718,
      "Ġfan": 4719,
      "Ġfle": 4720,
      "Ġdorm": 4721,
      "Ġdedu": 4722,
      "offer": 4723,
      "Ġpu": 4724,
      "Ġpil": 4725,
      "Ġpunch": 4726,
      "Ġlake": 4727,
      "Ġlect": 4728,
      "ĠWant": 4729,
      "ĠWalk": 4730,
      "ĠTe": 4731,
      "Ġinqu": 4732,
      "Ġrepe": 4733,
      "ids": 4734,
      "idden": 4735,
      "ĠSqu": 4736,
      "enth": 4737,
      "Ġshame": 4738,
      "ading": 4739,
      "Ġsoda": 4740,
      "iforn": 4741,
      "Ġchest": 4742,
      "Ġchances": 4743,
      "ĠWhile": 4744,
      "ĠLisa": 4745,
      "Ġaltogether": 4746,
      "ils": 4747,
      "Ġproced": 4748,
      "Ġplays": 4749,
      "venir": 4750,
      "Ġrum": 4751,
      "Ġrise": 4752,
      "Ġoverd": 4753,
      "Ġ23": 4754,
      "Ġflower": 4755,
      "Ġunus": 4756,
      "Ġunivers": 4757,
      "Ġunless": 4758,
      "Ġaccomp": 4759,
      "Ġblank": 4760,
      "Ġstudies": 4761,
      "Ġscient": 4762,
      "anced": 4763,
      "Ġglob": 4764,
      "Ġdining": 4765,
      "Ġskill": 4766,
      "Ġinsist": 4767,
      "Ġregard": 4768,
      "Ġfrank": 4769,
      "Ġends": 4770,
      "Ġconsum": 4771,
      "iao": 4772,
      "Ġentire": 4773,
      "ĠAnna": 4774,
      "Ġreturns": 4775,
      "Ġboys": 4776,
      "Ġrepres": 4777,
      "Ġpurpose": 4778,
      "Ġbottles": 4779,
      "Ġsunny": 4780,
      "ĠSomething": 4781,
      "ĠSpeaking": 4782,
      "Ġdistance": 4783,
      "Ġfairly": 4784,
      "porate": 4785,
      "Ġclimb": 4786,
      "Ġseries": 4787,
      "unte": 4788,
      "Ġseafood": 4789,
      "Ġgrab": 4790,
      "Ġsettle": 4791,
      "Ġroute": 4792,
      "ĠSuper": 4793,
      "ĠOlympics": 4794,
      "Ġweakness": 4795,
      "Ġcritic": 4796,
      "ĠCaliforn": 4797,
      "Ġefficient": 4798,
      "Ġadvantage": 4799,
      "Ġsplit": 4800,
      "Ġtravelling": 4801,
      "Ġsenior": 4802,
      "Ġsurvive": 4803,
      "Ġquantity": 4804,
      "ĠAugust": 4805,
      "Ġingredients": 4806,
      "Ġuniversities": 4807,
      "When": 4808,
      "mon": 4809,
      "pty": 4810,
      "sing": 4811,
      "vant": 4812,
      "vard": 4813,
      "wor": 4814,
      "yer": 4815,
      "Ġtone": 4816,
      "esome": 4817,
      "Ġgall": 4818,
      "Ġgro": 4819,
      "eding": 4820,
      "Ġinfl": 4821,
      "Ġreasons": 4822,
      "ĠHop": 4823,
      "ĠHum": 4824,
      "ĠHouse": 4825,
      "utation": 4826,
      "ĠAng": 4827,
      "ĠSix": 4828,
      "ĠMaster": 4829,
      "Ġgoals": 4830,
      "ĠDick": 4831,
      "ĠBra": 4832,
      "ource": 4833,
      "Ġsole": 4834,
      "Ġumb": 4835,
      "Ġsuite": 4836,
      "Ġknock": 4837,
      "urger": 4838,
      "Ġcommercial": 4839,
      "ilson": 4840,
      "ulty": 4841,
      "Ġamb": 4842,
      "Ġspeech": 4843,
      "ĠFour": 4844,
      "ĠFort": 4845,
      "Ġrude": 4846,
      "oston": 4847,
      "ĠRuss": 4848,
      "olars": 4849,
      "Ġclerk": 4850,
      "Ġhadn": 4851,
      "Ġappl": 4852,
      "Ġminor": 4853,
      "Ġdownload": 4854,
      "ĠInter": 4855,
      "ensive": 4856,
      "Ġdisp": 4857,
      "ĠKore": 4858,
      "Ġsupply": 4859,
      "Ġempty": 4860,
      "Ġaddition": 4861,
      "Ġaddict": 4862,
      "Ġmethod": 4863,
      "Ġtyping": 4864,
      "Ġmaintain": 4865,
      "Ġsnack": 4866,
      "Ġprincip": 4867,
      "Ġeffort": 4868,
      "Ġgraduation": 4869,
      "Ġgenerally": 4870,
      "cycle": 4871,
      "This": 4872,
      "Ġneighbors": 4873,
      "Ġparticularly": 4874,
      "Ġwalls": 4875,
      "Ġelectron": 4876,
      "Ġbenefit": 4877,
      "Ġriver": 4878,
      "Ġtechnical": 4879,
      "Ġroutine": 4880,
      "Ġcharged": 4881,
      "Ġmotorcycle": 4882,
      "Ġturning": 4883,
      "Ġneckl": 4884,
      "Ġphysical": 4885,
      "Ġbowl": 4886,
      "Ġspoken": 4887,
      "Ġchallenging": 4888,
      "Ġexperienced": 4889,
      "ĠBusiness": 4890,
      "Ġsouvenir": 4891,
      "ĠBelieve": 4892,
      "ĠGlad": 4893,
      "Ġincredible": 4894,
      "ĠWonderful": 4895,
      "Ġumbre": 4896,
      "Why": 4897,
      "father": 4898,
      "ham": 4899,
      "rit": 4900,
      "yle": 4901,
      "Ġ&": 4902,
      "ĠÂ": 4903,
      "Ġiron": 4904,
      "Ġtu": 4905,
      "Ġtip": 4906,
      "ining": 4907,
      "ened": 4908,
      "onest": 4909,
      "Ġbrow": 4910,
      "Ġfired": 4911,
      "Ġfestival": 4912,
      "Ġdare": 4913,
      "Ġdating": 4914,
      "Ġloose": 4915,
      "Ġgentle": 4916,
      "Ġnames": 4917,
      "aries": 4918,
      "arian": 4919,
      "ĠâĢĺ": 4920,
      "icing": 4921,
      "utch": 4922,
      "Ġlip": 4923,
      "ĠSim": 4924,
      "ĠSich": 4925,
      "Ġstage": 4926,
      "Ġsharp": 4927,
      "ĠWeb": 4928,
      "ĠDri": 4929,
      "ĠBo": 4930,
      "Ġchop": 4931,
      "eable": 4932,
      "raft": 4933,
      "elly": 4934,
      "Ġplate": 4935,
      "Ġplain": 4936,
      "Ġplants": 4937,
      "Ġspots": 4938,
      "ĠPres": 4939,
      "ĠFred": 4940,
      "ears": 4941,
      "Ġfeatures": 4942,
      "ĠRome": 4943,
      "ĠRick": 4944,
      "Ġloans": 4945,
      "Ġagent": 4946,
      "Ġotherwise": 4947,
      "Ġadjust": 4948,
      "Ġflex": 4949,
      "Ġintend": 4950,
      "Ġinterests": 4951,
      "Ġblame": 4952,
      "Ġdepos": 4953,
      "Ġbelow": 4954,
      "ucky": 4955,
      "Ġhappening": 4956,
      "Ġvisited": 4957,
      "Ġsigns": 4958,
      "ĠWhoa": 4959,
      "ĠForget": 4960,
      "Ġextension": 4961,
      "Ġ70": 4962,
      "ifications": 4963,
      "Ġeleven": 4964,
      "Ġpaperwork": 4965,
      "Ġtopic": 4966,
      "Ġgrades": 4967,
      "Ġconsidering": 4968,
      "Ġcheer": 4969,
      "Ġhundreds": 4970,
      "Ġresponsibilities": 4971,
      "overed": 4972,
      "Ġneighbour": 4973,
      "Ġnewspapers": 4974,
      "Ġregularly": 4975,
      "Ġvalu": 4976,
      "Ġcats": 4977,
      "Ġfamilies": 4978,
      "Ġenterpr": 4979,
      "Ġcalm": 4980,
      "Ġgarage": 4981,
      "ĠWorking": 4982,
      "Ġscenery": 4983,
      "Ġhousing": 4984,
      "ĠHarvard": 4985,
      "Ġchannels": 4986,
      "ĠCurrent": 4987,
      "achelor": 4988,
      "Ġtornado": 4989,
      "Ġcocktail": 4990,
      "Ġrepeat": 4991,
      "ĠCalifornia": 4992,
      "ĠSichuan": 4993,
      "23": 4994,
      "TM": 4995,
      "ging": 4996,
      "ky": 4997,
      "ler": 4998,
      "pa": 4999,
      "ray": 5000,
      "rass": 5001,
      "vable": 5002,
      "zing": 5003,
      "Ġir": 5004,
      "Ġtim": 5005,
      "iny": 5006,
      "ening": 5007,
      "enry": 5008,
      "Ġtoil": 5009,
      "Ġbored": 5010,
      "Ġfu": 5011,
      "Ġfond": 5012,
      "Ġdum": 5013,
      "Ġpig": 5014,
      "Ġpock": 5015,
      "Ġnature": 5016,
      "ĠWatch": 5017,
      "aration": 5018,
      "asing": 5019,
      "lection": 5020,
      "Ġhabits": 5021,
      "icag": 5022,
      "ĠHenry": 5023,
      "chan": 5024,
      "ĠAvenue": 5025,
      "ĠATM": 5026,
      "Ġstere": 5027,
      "Ġstir": 5028,
      "ĠMm": 5029,
      "ĠMart": 5030,
      "roll": 5031,
      "rovert": 5032,
      "Ġsev": 5033,
      "adem": 5034,
      "storm": 5035,
      "ĠBu": 5036,
      "ĠBoston": 5037,
      "Ġjud": 5038,
      "Ġjunk": 5039,
      "ĠNational": 5040,
      "Ġate": 5041,
      "Ġchair": 5042,
      "each": 5043,
      "estic": 5044,
      "Ġprob": 5045,
      "Ġcompens": 5046,
      "ĠRest": 5047,
      "arest": 5048,
      "umes": 5049,
      "Ġgotta": 5050,
      "Ġlog": 5051,
      "ĠAndy": 5052,
      "Ġrocks": 5053,
      "Ġpred": 5054,
      "Ġoppos": 5055,
      "Ġwrote": 5056,
      "Ġtomat": 5057,
      "Ġrecent": 5058,
      "Ġdisag": 5059,
      "ĠKate": 5060,
      "Ġbelt": 5061,
      "Ġclever": 5062,
      "Ġembar": 5063,
      "ĠAlmost": 5064,
      "ĠWilli": 5065,
      "Ġoffering": 5066,
      "Ġspeaks": 5067,
      "Ġfrust": 5068,
      "Ġcoup": 5069,
      "Ġcolour": 5070,
      "Ġtransaction": 5071,
      "ommod": 5072,
      "Ġwalked": 5073,
      "Ġpacked": 5074,
      "Ġreservations": 5075,
      "Ġbasically": 5076,
      "ĠAfric": 5077,
      "Ġconfused": 5078,
      "Ġlocation": 5079,
      "Ġreports": 5080,
      "Ġconsidered": 5081,
      "Ġholding": 5082,
      "Ġcompleted": 5083,
      "Ġprinter": 5084,
      "Ġfollowing": 5085,
      "ĠWaiter": 5086,
      "Ġbarbec": 5087,
      "Ġphoto": 5088,
      "Ġtransferred": 5089,
      "Ġmentioned": 5090,
      "Ġfashionable": 5091,
      "ĠKevin": 5092,
      "Ġstarving": 5093,
      "Ġproperly": 5094,
      "---": 5095,
      "Ġcommunity": 5096,
      "Ġblocks": 5097,
      "Ġfacial": 5098,
      "Ġofficial": 5099,
      "Ġnetwork": 5100,
      "Ġadvertisements": 5101,
      "ĠBetty": 5102,
      "Ġcabin": 5103,
      "Ġpotatoes": 5104,
      "Ġcandidate": 5105,
      "ĠDecember": 5106,
      "Ġconversation": 5107,
      "Ġtitle": 5108,
      "Ġunusual": 5109,
      "Ġnecklace": 5110,
      "ĠPresident": 5111,
      "icago": 5112,
      "Don": 5113,
      "Now": 5114,
      "aign": 5115,
      "gers": 5116,
      "kn": 5117,
      "look": 5118,
      "nel": 5119,
      "ram": 5120,
      "sp": 5121,
      "uary": 5122,
      "yn": 5123,
      "Ġvers": 5124,
      "Ġtape": 5125,
      "ott": 5126,
      "Ġwide": 5127,
      "Ġcast": 5128,
      "Ġcos": 5129,
      "Ġfab": 5130,
      "Ġdull": 5131,
      "Ġpills": 5132,
      "omen": 5133,
      "asy": 5134,
      "Ġinch": 5135,
      "ender": 5136,
      "Ġforgive": 5137,
      "uts": 5138,
      "Ġweb": 5139,
      "ĠAir": 5140,
      "Ġliqu": 5141,
      "Ġstairs": 5142,
      "ĠMed": 5143,
      "ĠMal": 5144,
      "roy": 5145,
      "Ġseed": 5146,
      "Ġselection": 5147,
      "ĠCall": 5148,
      "ĠDave": 5149,
      "Ġnearest": 5150,
      "amin": 5151,
      "ĠBas": 5152,
      "Ġsore": 5153,
      "Ġhey": 5154,
      "Ġrights": 5155,
      "Ġprogress": 5156,
      "ĠEd": 5157,
      "eping": 5158,
      "Ġwhenever": 5159,
      "Ġexpand": 5160,
      "Ġsheet": 5161,
      "ĠChicago": 5162,
      "Ġcoin": 5163,
      "Ġadmin": 5164,
      "anged": 5165,
      "ĠSurely": 5166,
      "Ġkeen": 5167,
      "Ġbecame": 5168,
      "izing": 5169,
      "Ġ36": 5170,
      "Ġwaiter": 5171,
      "ashed": 5172,
      "Ġrelatives": 5173,
      "Ġdescription": 5174,
      "Ġdisco": 5175,
      "Ġevenings": 5176,
      "Ġshops": 5177,
      "Ġteachers": 5178,
      "Ġlaid": 5179,
      "Ġqualifications": 5180,
      "Ġemployer": 5181,
      "Ġwarming": 5182,
      "ĠEverybody": 5183,
      "Ġcaf": 5184,
      "Ġconsideration": 5185,
      "olution": 5186,
      "Ġrequired": 5187,
      "Ġreputation": 5188,
      "Ġpostc": 5189,
      "Ġfitness": 5190,
      "Ġcharming": 5191,
      "Ġhistor": 5192,
      "Ġequal": 5193,
      "Ġlawyer": 5194,
      "Ġeffective": 5195,
      "ĠTrust": 5196,
      "Ġpotential": 5197,
      "Ġgrandmother": 5198,
      "Ġsatisfaction": 5199,
      "Ġcampaign": 5200,
      "Ġobvious": 5201,
      "Ġapproach": 5202,
      "Ġstatement": 5203,
      "Ġshoe": 5204,
      "Ġconcern": 5205,
      "orgeous": 5206,
      "ĠEmory": 5207,
      "Ġofficer": 5208,
      "Ġdivorced": 5209,
      "Ġcigarette": 5210,
      "Ġromantic": 5211,
      "Ġceremony": 5212,
      "Ġsample": 5213,
      "Ġvolunte": 5214,
      "Ġcrime": 5215,
      "Ġsupervisor": 5216,
      "Ġdata": 5217,
      "Ġcousin": 5218,
      "Ġmaximum": 5219,
      "Ġproposal": 5220,
      "ĠSpring": 5221,
      "Ġindividual": 5222,
      "Ġappliances": 5223,
      "Ġbicycle": 5224,
      "ĠSquare": 5225,
      "Ġglobal": 5226,
      "ĠAngel": 5227,
      "olarship": 5228,
      "Ġumbrella": 5229,
      "Ġembarrass": 5230,
      "bage": 5231,
      "down": 5232,
      "lets": 5233,
      "made": 5234,
      "ties": 5235,
      "Ġtre": 5236,
      "Ġtar": 5237,
      "Ġsex": 5238,
      "ĠIBA": 5239,
      "Ġmir": 5240,
      "Ġmum": 5241,
      "Ġmult": 5242,
      "Ġcy": 5243,
      "Ġdirty": 5244,
      "ĠWest": 5245,
      "ĠWork": 5246,
      "ara": 5247,
      "eteria": 5248,
      "ĠTen": 5249,
      "ĠTim": 5250,
      "enda": 5251,
      "icies": 5252,
      "alf": 5253,
      "ĠAirl": 5254,
      "ĠAmy": 5255,
      "ĠSc": 5256,
      "rimp": 5257,
      "elie": 5258,
      "Ġcancell": 5259,
      "Ġstations": 5260,
      "ĠMerry": 5261,
      "ĠCP": 5262,
      "ĠCont": 5263,
      "store": 5264,
      "usted": 5265,
      "Ġjew": 5266,
      "anta": 5267,
      "Ġsoci": 5268,
      "Ġheight": 5269,
      "Ġrates": 5270,
      "ĠJuly": 5271,
      "Ġagenda": 5272,
      "Ġtrick": 5273,
      "Ġgreatest": 5274,
      "Ġcoke": 5275,
      "Ġroommate": 5276,
      "Ġadmit": 5277,
      "Ġbride": 5278,
      "Ġ27": 5279,
      "Ġpermit": 5280,
      "Ġunfortunately": 5281,
      "Ġdownstairs": 5282,
      "Ġhiking": 5283,
      "Ġhired": 5284,
      "Ġdecent": 5285,
      "Ġhighest": 5286,
      "Ġscale": 5287,
      "ĠKaren": 5288,
      "Ġattack": 5289,
      "Ġpersonally": 5290,
      "ogn": 5291,
      "Ġrail": 5292,
      "Ġworrying": 5293,
      "ĠAlex": 5294,
      "Ġinformed": 5295,
      "Ġtrim": 5296,
      "Ġoffered": 5297,
      "Ġcoun": 5298,
      "Ġruns": 5299,
      "Ġsending": 5300,
      "Ġpresents": 5301,
      "Ġconsult": 5302,
      "Ġteaching": 5303,
      "ivil": 5304,
      "Ġ75": 5305,
      "Ġmarkets": 5306,
      "Ġfourth": 5307,
      "Ġpolicies": 5308,
      "azz": 5309,
      "Ġcrack": 5310,
      "Ġhaircut": 5311,
      "Ġcafe": 5312,
      "ĠBring": 5313,
      "Ġconfidence": 5314,
      "ollow": 5315,
      "Ġdetect": 5316,
      "Ġlessons": 5317,
      "Ġrequires": 5318,
      "Ġpurse": 5319,
      "Ġpublish": 5320,
      "shine": 5321,
      "Ġevent": 5322,
      "Ġevidence": 5323,
      "Ġdesigned": 5324,
      "coln": 5325,
      "Ġdiam": 5326,
      "Ġtradition": 5327,
      "Ġprofessor": 5328,
      "Ġbedrooms": 5329,
      "Ġautumn": 5330,
      "Ġgroups": 5331,
      "Ġfunds": 5332,
      "ĠGuess": 5333,
      "Ġmixed": 5334,
      "Ġbattery": 5335,
      "Ġpaintings": 5336,
      "Ġskiing": 5337,
      "Ġchannel": 5338,
      "Ġrobber": 5339,
      "ĠService": 5340,
      "Ġfocus": 5341,
      "Ġstrawber": 5342,
      "Ġcompliment": 5343,
      "Ġrepresent": 5344,
      "Ġapplied": 5345,
      "Ġlipst": 5346,
      "Ġtoilet": 5347,
      "Ġopposite": 5348,
      "Ġcafeteria": 5349,
      "11": 5350,
      "88": 5351,
      "Are": 5352,
      "Will": 5353,
      "eg": 5354,
      "free": 5355,
      "ked": 5356,
      "lim": 5357,
      "like": 5358,
      "mos": 5359,
      "pack": 5360,
      "ster": 5361,
      "uing": 5362,
      "Ġx": 5363,
      "Ġtong": 5364,
      "Ġtab": 5365,
      "Ġaunt": 5366,
      "iner": 5367,
      "Ġthirst": 5368,
      "rel": 5369,
      "Ġmut": 5370,
      "ena": 5371,
      "onven": 5372,
      "Ġcongratulations": 5373,
      "Ġfry": 5374,
      "Ġfitting": 5375,
      "Ġdates": 5376,
      "Ġpays": 5377,
      "Ġpitch": 5378,
      "Ġpump": 5379,
      "Ġpipe": 5380,
      "Ġlem": 5381,
      "Ġlung": 5382,
      "Ġge": 5383,
      "Ġgun": 5384,
      "Ġgorgeous": 5385,
      "Ġnin": 5386,
      "Ġnap": 5387,
      "Ġnurse": 5388,
      "Ġinse": 5389,
      "Ġhamb": 5390,
      "Ġbeans": 5391,
      "Ġrefer": 5392,
      "ĠHall": 5393,
      "Ġmechan": 5394,
      "Ġweigh": 5395,
      "Ġweird": 5396,
      "check": 5397,
      "ĠAg": 5398,
      "ĠOp": 5399,
      "Ġstars": 5400,
      "Ġshipping": 5401,
      "acious": 5402,
      "oodles": 5403,
      "ĠBir": 5404,
      "ppers": 5405,
      "ulate": 5406,
      "Ġworker": 5407,
      "ĠEve": 5408,
      "ĠEast": 5409,
      "ĠFill": 5410,
      "igning": 5411,
      "unior": 5412,
      "ums": 5413,
      "actory": 5414,
      "Ġarms": 5415,
      "Ġprem": 5416,
      "Ġadult": 5417,
      "redit": 5418,
      "Ġpartner": 5419,
      "Ġscholarship": 5420,
      "Ġsmile": 5421,
      "Ġfinance": 5422,
      "Ġgrade": 5423,
      "Ġcontain": 5424,
      "onda": 5425,
      "Ġteeth": 5426,
      "Ġthoughtful": 5427,
      "Ġbelong": 5428,
      "tenance": 5429,
      "Ġinvoice": 5430,
      "Ġfriendship": 5431,
      "Ġapart": 5432,
      "Ġsigned": 5433,
      "Ġfarm": 5434,
      "leased": 5435,
      "Ġstrate": 5436,
      "Ġslight": 5437,
      "Ġ45": 5438,
      "Ġ400": 5439,
      "Ġbreaks": 5440,
      "Ġcooked": 5441,
      "Ġhotels": 5442,
      "Ġforever": 5443,
      "Ġforecast": 5444,
      "Ġcustoms": 5445,
      "Ġconcent": 5446,
      "Ġmainly": 5447,
      "Ġinconven": 5448,
      "Ġforeigners": 5449,
      "Ġprovides": 5450,
      "ĠJanet": 5451,
      "Ġ250": 5452,
      "Ġengaged": 5453,
      "Ġsteal": 5454,
      "Ġcorrectly": 5455,
      "Ġzero": 5456,
      "Ġtechnology": 5457,
      "Ġkilled": 5458,
      "Ġcalc": 5459,
      "Ġdeadline": 5460,
      "Ġsilver": 5461,
      "Ġmillions": 5462,
      "Ġoccup": 5463,
      "ĠLincoln": 5464,
      "Ġmembership": 5465,
      "ĠBarbie": 5466,
      "Ġromance": 5467,
      "Ġcommunication": 5468,
      "ĠCentral": 5469,
      "Ġlaughing": 5470,
      "Ġstrengths": 5471,
      "Ġseparate": 5472,
      "Ġscratch": 5473,
      "Ġentertainment": 5474,
      "Ġvillage": 5475,
      "ĠMartin": 5476,
      "ĠRestaurant": 5477,
      "elievable": 5478,
      "Ġtongue": 5479,
      "In": 5480,
      "Track": 5481,
      "ao": 5482,
      "hlet": 5483,
      "iant": 5484,
      "iable": 5485,
      "iency": 5486,
      "lines": 5487,
      "pir": 5488,
      "zer": 5489,
      "ãĢ": 5490,
      "Ġ00": 5491,
      "Ġought": 5492,
      "Ġign": 5493,
      "ĠãĢ": 5494,
      "othing": 5495,
      "Ġyog": 5496,
      "Ġmort": 5497,
      "Ġcakes": 5498,
      "Ġhomet": 5499,
      "Ġburn": 5500,
      "Ġbars": 5501,
      "itan": 5502,
      "Ġfinger": 5503,
      "Ġdust": 5504,
      "Ġpink": 5505,
      "Ġpers": 5506,
      "Ġlines": 5507,
      "Ġnation": 5508,
      "arily": 5509,
      "etch": 5510,
      "edy": 5511,
      "Ġinf": 5512,
      "Ġinj": 5513,
      "Ġitself": 5514,
      "lder": 5515,
      "ldom": 5516,
      "Ġonto": 5517,
      "Ġcandy": 5518,
      "Ġcancer": 5519,
      "ĠOper": 5520,
      "ĠOsc": 5521,
      "ĠMo": 5522,
      "ĠMars": 5523,
      "rop": 5524,
      "roaches": 5525,
      "Ġlikely": 5526,
      "Ġshad": 5527,
      "Ġshamp": 5528,
      "Ġshrimp": 5529,
      "ĠCons": 5530,
      "ĠCath": 5531,
      "ĠDis": 5532,
      "aceful": 5533,
      "ĠNancy": 5534,
      "Ġsocc": 5535,
      "Ġathlet": 5536,
      "ĠTheir": 5537,
      "ĠLaw": 5538,
      "Ġexha": 5539,
      "ili": 5540,
      "Ġplac": 5541,
      "Ġoutstanding": 5542,
      "Ġupd": 5543,
      "ĠEs": 5544,
      "ĠEight": 5545,
      "ĠFl": 5546,
      "ĠForm": 5547,
      "Ġrug": 5548,
      "Ġpret": 5549,
      "Ġcoast": 5550,
      "Ġmoist": 5551,
      "angzhou": 5552,
      "Ġfeelings": 5553,
      "Ġblond": 5554,
      "Ġgrass": 5555,
      "Ġ35": 5556,
      "Ġcontest": 5557,
      "cling": 5558,
      "cles": 5559,
      "Ġsalt": 5560,
      "Ġpassion": 5561,
      "Ġbooth": 5562,
      "Ġstruct": 5563,
      "Ġpossibility": 5564,
      "Ġtransl": 5565,
      "Ġapartments": 5566,
      "Ġpicked": 5567,
      "Ġmeter": 5568,
      "Ġvisitors": 5569,
      "Ġcris": 5570,
      "Ġcaused": 5571,
      "Ġdifficulties": 5572,
      "Ġstreets": 5573,
      "Ġcentral": 5574,
      "Ġdiscussion": 5575,
      "Ġheaven": 5576,
      "Ġpromoted": 5577,
      "ĠDaddy": 5578,
      "ength": 5579,
      "Ġleaders": 5580,
      "Ġhorror": 5581,
      "Ġmode": 5582,
      "Ġfurnished": 5583,
      "Ġorganic": 5584,
      "Ġoperation": 5585,
      "Ġclimbing": 5586,
      "Ġfifth": 5587,
      "Ġ199": 5588,
      "Ġcloser": 5589,
      "Ġreached": 5590,
      "Ġcultural": 5591,
      "Ġsubjects": 5592,
      "ĠManager": 5593,
      "Ġoption": 5594,
      "Ġanti": 5595,
      "ĠCorporation": 5596,
      "Ġelectricity": 5597,
      "ĠBritain": 5598,
      "ĠPersonal": 5599,
      "ĠMexico": 5600,
      "Ġladies": 5601,
      "ĠOtherwise": 5602,
      "Ġdomestic": 5603,
      "Ġmangoes": 5604,
      "ĠExpress": 5605,
      "Ġappetizer": 5606,
      "working": 5607,
      "ĠWebTrack": 5608,
      "Ġflexible": 5609,
      "roverted": 5610,
      "Ġbarbecue": 5611,
      "Ġlipstick": 5612,
      "Ġhometown": 5613,
      "Ġshampoo": 5614,
      "Ġsoccer": 5615,
      "ĠWebTracker": 5616,
      "500": 5617,
      "VD": 5618,
      "gant": 5619,
      "hour": 5620,
      "ik": 5621,
      "kins": 5622,
      "while": 5623,
      "yond": 5624,
      "zil": 5625,
      "inite": 5626,
      "Ġsout": 5627,
      "Ġwow": 5628,
      "Ġward": 5629,
      "Ġmic": 5630,
      "ats": 5631,
      "Ġhill": 5632,
      "Ġhook": 5633,
      "Ġtowards": 5634,
      "iser": 5635,
      "Ġpenc": 5636,
      "Ġpath": 5637,
      "Ġpages": 5638,
      "Ġpants": 5639,
      "Ġpsych": 5640,
      "Ġlength": 5641,
      "Ġgambling": 5642,
      "Ġnor": 5643,
      "Ġnoodles": 5644,
      "ĠTax": 5645,
      "ĠThough": 5646,
      "uted": 5647,
      "ĠSuch": 5648,
      "ĠSame": 5649,
      "ĠSanta": 5650,
      "rier": 5651,
      "illed": 5652,
      "ĠOut": 5653,
      "ĠMel": 5654,
      "ĠCol": 5655,
      "ĠCredit": 5656,
      "Ġkiss": 5657,
      "adena": 5658,
      "ĠDam": 5659,
      "ĠDutch": 5660,
      "ĠDVD": 5661,
      "Ġneither": 5662,
      "ĠBoy": 5663,
      "ĠNorth": 5664,
      "Ġsumm": 5665,
      "gee": 5666,
      "Ġalarm": 5667,
      "iles": 5668,
      "ilton": 5669,
      "ĠGee": 5670,
      "Ġproof": 5671,
      "Ġprove": 5672,
      "Ġoutf": 5673,
      "Ġupstairs": 5674,
      "ĠEconom": 5675,
      "ĠPal": 5676,
      "ĠPardon": 5677,
      "ĠFollow": 5678,
      "ĠJess": 5679,
      "Ġshoulder": 5680,
      "Ġvoted": 5681,
      "Ġrole": 5682,
      "ousers": 5683,
      "Ġbush": 5684,
      "Ġbuff": 5685,
      "Ġtrousers": 5686,
      "Ġtells": 5687,
      "udy": 5688,
      "Ġprevent": 5689,
      "ĠHaw": 5690,
      "Ġimm": 5691,
      "anging": 5692,
      "Ġlasts": 5693,
      "Ġcarr": 5694,
      "izzy": 5695,
      "Ġblind": 5696,
      "Ġblouse": 5697,
      "Ġdebit": 5698,
      "Ġrecogn": 5699,
      "erior": 5700,
      "Ġclassmates": 5701,
      "Ġdecis": 5702,
      "Ġeaten": 5703,
      "Ġscar": 5704,
      "Ġsets": 5705,
      "phere": 5706,
      "Ġ800": 5707,
      "Ġbegan": 5708,
      "Ġheading": 5709,
      "Ġvacu": 5710,
      "Ġcleaned": 5711,
      "Ġexercising": 5712,
      "Ġpreparing": 5713,
      "Ġjoining": 5714,
      "Ġawfully": 5715,
      "Ġprojects": 5716,
      "Ġwindows": 5717,
      "Ġthousands": 5718,
      "Ġphotograph": 5719,
      "atively": 5720,
      "Ġvegetarian": 5721,
      "Ġpromote": 5722,
      "Ġgrowth": 5723,
      "Ġlaws": 5724,
      "Ġcollection": 5725,
      "Ġhorse": 5726,
      "Ġclubs": 5727,
      "Ġoperate": 5728,
      "Ġhumor": 5729,
      "Ġsolid": 5730,
      "Ġcapital": 5731,
      "Ġbreathing": 5732,
      "Ġkilling": 5733,
      "Ġrolls": 5734,
      "Ġbalcon": 5735,
      "Ġpicking": 5736,
      "Ġjournal": 5737,
      "Ġdraft": 5738,
      "Maybe": 5739,
      "Ġabsent": 5740,
      "ĠHuh": 5741,
      "ĠFinally": 5742,
      "Ġutilities": 5743,
      "Ġfrequently": 5744,
      "Ġcrying": 5745,
      "ĠApple": 5746,
      "Ġmassage": 5747,
      "ĠForeign": 5748,
      "ĠVISA": 5749,
      "Ġinflu": 5750,
      "ĠHopefully": 5751,
      "ĠBrazil": 5752,
      "Ġaddicted": 5753,
      "Ġpocket": 5754,
      "Ġprobation": 5755,
      "Ġcompensation": 5756,
      "Have": 5757,
      "LS": 5758,
      "cond": 5759,
      "fall": 5760,
      "four": 5761,
      "gon": 5762,
      "iang": 5763,
      "rd": 5764,
      "Ġtables": 5765,
      "erally": 5766,
      "Ġthick": 5767,
      "ushing": 5768,
      "Ġsof": 5769,
      "ĠIT": 5770,
      "Ġwalt": 5771,
      "Ġmile": 5772,
      "Ġcu": 5773,
      "Ġcit": 5774,
      "Ġhers": 5775,
      "itate": 5776,
      "Ġfro": 5777,
      "Ġfans": 5778,
      "Ġdent": 5779,
      "Ġpets": 5780,
      "Ġlon": 5781,
      "Ġgrew": 5782,
      "Ġna": 5783,
      "ĠWu": 5784,
      "ĠWin": 5785,
      "ĠWilson": 5786,
      "ĠTony": 5787,
      "Ġinfect": 5788,
      "Ġham": 5789,
      "ĠThink": 5790,
      "ĠYup": 5791,
      "ication": 5792,
      "Ġbeyond": 5793,
      "Ġrev": 5794,
      "Ġreward": 5795,
      "ĠHelp": 5796,
      "ĠHonda": 5797,
      "alty": 5798,
      "ĠSit": 5799,
      "ĠSun": 5800,
      "ĠSons": 5801,
      "ĠSever": 5802,
      "ĠSyd": 5803,
      "Ġstates": 5804,
      "ĠMen": 5805,
      "ĠMic": 5806,
      "ĠMill": 5807,
      "ĠMain": 5808,
      "Ġshout": 5809,
      "ĠCo": 5810,
      "Ġneg": 5811,
      "ĠNe": 5812,
      "Ġsuc": 5813,
      "Ġchef": 5814,
      "Ġchops": 5815,
      "esting": 5816,
      "ĠLong": 5817,
      "ĠLos": 5818,
      "Ġanybody": 5819,
      "Ġaltern": 5820,
      "Ġgoodness": 5821,
      "Ġexec": 5822,
      "anda": 5823,
      "Ġupon": 5824,
      "ĠPe": 5825,
      "Ġroof": 5826,
      "Ġrose": 5827,
      "Ġinterrupt": 5828,
      "Ġenvy": 5829,
      "Ġbug": 5830,
      "Ġtruck": 5831,
      "ĠValent": 5832,
      "soci": 5833,
      "Ġ22": 5834,
      "Ġresources": 5835,
      "ode": 5836,
      "Ġwaitress": 5837,
      "Ġbookstore": 5838,
      "ĠRebec": 5839,
      "Ġfaith": 5840,
      "ĠStar": 5841,
      "ĠStep": 5842,
      "Ġhandling": 5843,
      "Ġhousehold": 5844,
      "ancing": 5845,
      "Ġdrives": 5846,
      "Ġskirts": 5847,
      "Ġsetting": 5848,
      "Ġtrainer": 5849,
      "Ġlisted": 5850,
      "ĠAlthough": 5851,
      "Ġregret": 5852,
      "Ġregulations": 5853,
      "Ġairmail": 5854,
      "Ġslot": 5855,
      "Ġslim": 5856,
      "Ġpossibly": 5857,
      "Ġsings": 5858,
      "Ġbanks": 5859,
      "Ġtrips": 5860,
      "Ġcorporation": 5861,
      "Ġqualities": 5862,
      "Ġemployed": 5863,
      "Ġelection": 5864,
      "Ġcrush": 5865,
      "Ġtourn": 5866,
      "Ġrecommendation": 5867,
      "Ġrains": 5868,
      "Ġacceptable": 5869,
      "Ġdeter": 5870,
      "Ġconsiderate": 5871,
      "Ġprogramm": 5872,
      "Ġprize": 5873,
      "Ġmemor": 5874,
      "Ġsunshine": 5875,
      "thern": 5876,
      "Ġdropped": 5877,
      "Ġbehav": 5878,
      "Ġinvestig": 5879,
      "Ġgrowing": 5880,
      "Ġstocks": 5881,
      "ĠUSD": 5882,
      "engers": 5883,
      "Ġmodels": 5884,
      "Ġlandsc": 5885,
      "Ġcarrying": 5886,
      "ertificates": 5887,
      "Ġbreathe": 5888,
      "Ġstressful": 5889,
      "Ġissues": 5890,
      "iquet": 5891,
      "ĠEmily": 5892,
      "Ġinstructions": 5893,
      "ĠIndian": 5894,
      "Ġnormally": 5895,
      "ĠBetter": 5896,
      "ĠSara": 5897,
      "Ġkilomet": 5898,
      "ĠMmmm": 5899,
      "ĠTravel": 5900,
      "Ġdestroy": 5901,
      "Ġcereal": 5902,
      "ĠElvin": 5903,
      "Ġjogging": 5904,
      "Ġfortune": 5905,
      "Ġplatform": 5906,
      "ĠSingle": 5907,
      "Ġannoying": 5908,
      "ĠLoan": 5909,
      "ĠGenerally": 5910,
      "Ġtheatre": 5911,
      "Ġdeduct": 5912,
      "Ġvaluable": 5913,
      "Ġvolunteer": 5914,
      "Ġinsect": 5915,
      "ĠBirth": 5916,
      "ĠSeveral": 5917,
      "ĠSydney": 5918,
      "ĠRebecca": 5919,
      "86": 5920,
      "IF": 5921,
      "bidden": 5922,
      "ges": 5923,
      "mat": 5924,
      "mill": 5925,
      "pro": 5926,
      "ux": 5927,
      "uate": 5928,
      "Ġ000": 5929,
      "Ġaward": 5930,
      "ino": 5931,
      "usi": 5932,
      "Ġwool": 5933,
      "enge": 5934,
      "atically": 5935,
      "Ġcord": 5936,
      "Ġcivil": 5937,
      "Ġbes": 5938,
      "Ġbend": 5939,
      "itar": 5940,
      "oring": 5941,
      "Ġfra": 5942,
      "Ġduck": 5943,
      "Ġgather": 5944,
      "Ġgross": 5945,
      "Ġnons": 5946,
      "ĠWr": 5947,
      "ĠWomen": 5948,
      "ĠTian": 5949,
      "endar": 5950,
      "ĠYang": 5951,
      "iculous": 5952,
      "Ġforce": 5953,
      "Ġrear": 5954,
      "child": 5955,
      "ĠAM": 5956,
      "elet": 5957,
      "Ġstood": 5958,
      "Ġstove": 5959,
      "ĠMarket": 5960,
      "ĠMont": 5961,
      "ĠMountain": 5962,
      "Ġgoss": 5963,
      "ĠCertificate": 5964,
      "Ġjeal": 5965,
      "Ġwhom": 5966,
      "ĠNick": 5967,
      "ĠNope": 5968,
      "Ġuh": 5969,
      "Ġchina": 5970,
      "urt": 5971,
      "ĠLea": 5972,
      "Ġalum": 5973,
      "Ġalthough": 5974,
      "Ġoven": 5975,
      "ĠGate": 5976,
      "Ġprop": 5977,
      "ĠDoll": 5978,
      "Ġplates": 5979,
      "ateful": 5980,
      "ĠPat": 5981,
      "Ġcompare": 5982,
      "ĠFlight": 5983,
      "igent": 5984,
      "ĠJen": 5985,
      "Ġcondu": 5986,
      "Ġconvin": 5987,
      "Ġfeed": 5988,
      "Ġcloud": 5989,
      "Ġclothing": 5990,
      "Ġque": 5991,
      "Ġquot": 5992,
      "reek": 5993,
      "Ġinterp": 5994,
      "Ġoverweight": 5995,
      "Ġtroub": 5996,
      "ĠVince": 5997,
      "Ġcoach": 5998,
      "Ġletting": 5999,
      "Ġmoon": 6000,
      "Ġbrush": 6001,
      "Ġ28": 6002,
      "ango": 6003,
      "Ġflies": 6004,
      "Ġunha": 6005,
      "Ġmanaged": 6006,
      "Ġaccommod": 6007,
      "Ġdeath": 6008,
      "Ġgrateful": 6009,
      "Ġ32": 6010,
      "velous": 6011,
      "Ġplanet": 6012,
      "Ġhearing": 6013,
      "Ġpassengers": 6014,
      "Ġpersonnel": 6015,
      "Ġbreast": 6016,
      "Ġcomplex": 6017,
      "Ġbeds": 6018,
      "Ġfoundation": 6019,
      "Ġstands": 6020,
      "Ġemployment": 6021,
      "Ġcurtain": 6022,
      "Ġdepartments": 6023,
      "Ġelegant": 6024,
      "Ġcausing": 6025,
      "Ġrefresh": 6026,
      "Ġtasty": 6027,
      "Ġjoined": 6028,
      "Ġparcel": 6029,
      "Ġcamping": 6030,
      "Ġdesigns": 6031,
      "Ġroads": 6032,
      "Then": 6033,
      "ĠJimmy": 6034,
      "Ġlowest": 6035,
      "Ġpepper": 6036,
      "Ġcollecting": 6037,
      "ĠClub": 6038,
      "Ġtrading": 6039,
      "Ġdeveloping": 6040,
      "ĠSteve": 6041,
      "Ġcompetitive": 6042,
      "Ġexception": 6043,
      "Ġdancer": 6044,
      "Ġcalendar": 6045,
      "Ġilleg": 6046,
      "Ġgarbage": 6047,
      "Ġeconomic": 6048,
      "Ġchallenge": 6049,
      "Ġsuperior": 6050,
      "Ġearthqu": 6051,
      "ĠHarry": 6052,
      "Ġnegotiate": 6053,
      "Ġtextbook": 6054,
      "Ġcockroaches": 6055,
      "Ġbaseball": 6056,
      "ĠCenter": 6057,
      "Ġdetailed": 6058,
      "Ġsurface": 6059,
      "Ġunfair": 6060,
      "Ġdeparture": 6061,
      "Ġindependent": 6062,
      "Ġlobby": 6063,
      "Ġwaist": 6064,
      "Ġinitial": 6065,
      "ĠCollege": 6066,
      "Ġunbelievable": 6067,
      "Ġprocedure": 6068,
      "Ġaccomplish": 6069,
      "ĠFortunately": 6070,
      "Ġsouvenirs": 6071,
      "ĠDrive": 6072,
      "ademic": 6073,
      "Ġjudge": 6074,
      "Ġdisagree": 6075,
      "ĠAngeles": 6076,
      "mosphere": 6077,
      "Ġthirsty": 6078,
      "Ġlemon": 6079,
      "ĠOpen": 6080,
      "Ġinconvenience": 6081,
      "ĠãĢĤ": 6082,
      "Ġexhausted": 6083,
      "Ġmoisturi": 6084,
      "Ġvacuum": 6085,
      "Ġbalcony": 6086,
      "condition": 6087,
      "Ġsofa": 6088,
      "Ġwaltz": 6089,
      "Ġlonely": 6090,
      "Ġsucceed": 6091,
      "ĠValentine": 6092,
      "ĠBirthday": 6093,
      "Ġbeside": 6094,
      "Ġjealous": 6095,
      "Ġunhappy": 6096,
      "13": 6097,
      "Well": 6098,
      "bag": 6099,
      "boy": 6100,
      "gn": 6101,
      "hh": 6102,
      "husi": 6103,
      "ius": 6104,
      "iance": 6105,
      "no": 6106,
      "ok": 6107,
      "pes": 6108,
      "rating": 6109,
      "what": 6110,
      "Ġtires": 6111,
      "ounter": 6112,
      "inct": 6113,
      "Ġthor": 6114,
      "Ġsorts": 6115,
      "Ġsizes": 6116,
      "Ġmp": 6117,
      "enger": 6118,
      "onst": 6119,
      "Ġhes": 6120,
      "Ġhar": 6121,
      "Ġhole": 6122,
      "Ġbachelor": 6123,
      "lliant": 6124,
      "ita": 6125,
      "Ġfright": 6126,
      "Ġfear": 6127,
      "Ġfiction": 6128,
      "Ġdip": 6129,
      "Ġdizzy": 6130,
      "Ġlack": 6131,
      "Ġlamp": 6132,
      "Ġnone": 6133,
      "ĠâĢĵ": 6134,
      "Ġwealth": 6135,
      "ĠAC": 6136,
      "ĠAw": 6137,
      "enture": 6138,
      "ĠOb": 6139,
      "Ġstor": 6140,
      "Ġstew": 6141,
      "ĠMarch": 6142,
      "Ġshake": 6143,
      "Ġshown": 6144,
      "Ġseldom": 6145,
      "ĠCom": 6146,
      "ĠBri": 6147,
      "Ġjunior": 6148,
      "ĠYesterday": 6149,
      "Ġatmosphere": 6150,
      "Ġchose": 6151,
      "urb": 6152,
      "Ġbutt": 6153,
      "hern": 6154,
      "Ġaller": 6155,
      "iled": 6156,
      "ession": 6157,
      "Ġplug": 6158,
      "ĠPI": 6159,
      "ĠPass": 6160,
      "ĠPLS": 6161,
      "Ġrace": 6162,
      "ĠRed": 6163,
      "ĠRec": 6164,
      "oles": 6165,
      "Ġqueen": 6166,
      "Ġvan": 6167,
      "Ġvict": 6168,
      "Ġtwin": 6169,
      "Ġhero": 6170,
      "Ġsaving": 6171,
      "apes": 6172,
      "Ġimage": 6173,
      "Ġintell": 6174,
      "Ġdev": 6175,
      "Ġfewer": 6176,
      "Ġrecon": 6177,
      "Ġrecover": 6178,
      "ĠCouldn": 6179,
      "Ġwaited": 6180,
      "Ġplanned": 6181,
      "Ġscary": 6182,
      "Ġrelieve": 6183,
      "Ġtalks": 6184,
      "Ġspecialty": 6185,
      "Ġreality": 6186,
      "Ġcolumn": 6187,
      "Ġsurg": 6188,
      "arently": 6189,
      "Ġfavorable": 6190,
      "ĠToky": 6191,
      "Ġcommitted": 6192,
      "rooms": 6193,
      "ĠDoesn": 6194,
      "Ġflights": 6195,
      "Ġenthusi": 6196,
      "Ġpackages": 6197,
      "ĠAnne": 6198,
      "Ġdifficulty": 6199,
      "Ġrecommended": 6200,
      "Ġbroch": 6201,
      "Ġassure": 6202,
      "Ġwinds": 6203,
      "olly": 6204,
      "workers": 6205,
      "Ġreply": 6206,
      "Ġarriving": 6207,
      "Ġprinted": 6208,
      "Ġawesome": 6209,
      "Ġposted": 6210,
      "Ġefforts": 6211,
      "Ġfallen": 6212,
      "Ġmidnight": 6213,
      "Ġpeel": 6214,
      "ĠAccord": 6215,
      "Ġdeveloped": 6216,
      "Ġleader": 6217,
      "Ġleading": 6218,
      "Ġeducational": 6219,
      "Ġsatisfactory": 6220,
      "Ġpattern": 6221,
      "Ġridiculous": 6222,
      "Ġwithdrawal": 6223,
      "Ġhanging": 6224,
      "Ġreduction": 6225,
      "Ġsmells": 6226,
      "ĠGuangzhou": 6227,
      "Ġscene": 6228,
      "Ġconfirmation": 6229,
      "Ġlargest": 6230,
      "ĠJulie": 6231,
      "ĠCarl": 6232,
      "Ġdemonst": 6233,
      "Ġengineer": 6234,
      "Ġjumped": 6235,
      "intosh": 6236,
      "Ġbrilliant": 6237,
      "Ġappetite": 6238,
      "Ġdelayed": 6239,
      "Ġsuspect": 6240,
      "Ġspirit": 6241,
      "Ġfavourite": 6242,
      "Ġwireless": 6243,
      "ĠCharles": 6244,
      "Ġelectronic": 6245,
      "ĠÂ£": 6246,
      "Ġdumpl": 6247,
      "Ġfabulous": 6248,
      "Ġpostcards": 6249,
      "Ġsociety": 6250,
      "Ġrailway": 6251,
      "Ġcounsel": 6252,
      "Ġdiamond": 6253,
      "Ġmortgage": 6254,
      "Ġstructure": 6255,
      "Ġoutfit": 6256,
      "ĠLeave": 6257,
      "Ġaluminum": 6258,
      "Ġthorough": 6259,
      "ĠTokyo": 6260,
      "DD": 6261,
      "EL": 6262,
      "Just": 6263,
      "Oh": 6264,
      "can": 6265,
      "done": 6266,
      "fashion": 6267,
      "hu": 6268,
      "kin": 6269,
      "mind": 6270,
      "now": 6271,
      "oot": 6272,
      "rid": 6273,
      "rical": 6274,
      "size": 6275,
      "wood": 6276,
      "walk": 6277,
      "word": 6278,
      "Ġties": 6279,
      "erable": 6280,
      "Ġairl": 6281,
      "otton": 6282,
      "Ġwoke": 6283,
      "Ġyard": 6284,
      "rev": 6285,
      "reme": 6286,
      "Ġmild": 6287,
      "enities": 6288,
      "Ġtoes": 6289,
      "Ġtoys": 6290,
      "Ġbare": 6291,
      "orters": 6292,
      "Ġdump": 6293,
      "isc": 6294,
      "Ġpad": 6295,
      "Ġpairs": 6296,
      "Ġporter": 6297,
      "Ġlid": 6298,
      "Ġlink": 6299,
      "Ġgown": 6300,
      "Ġnamed": 6301,
      "Ġniece": 6302,
      "ĠTy": 6303,
      "ĠTina": 6304,
      "asc": 6305,
      "ĠThail": 6306,
      "icking": 6307,
      "Ġreference": 6308,
      "idents": 6309,
      "ĠAut": 6310,
      "ĠSan": 6311,
      "ĠMad": 6312,
      "iry": 6313,
      "Ġsemin": 6314,
      "Ġsevent": 6315,
      "ĠCoffee": 6316,
      "ĠDear": 6317,
      "stood": 6318,
      "ĠBea": 6319,
      "ĠBook": 6320,
      "ĠBang": 6321,
      "Ġjoke": 6322,
      "antly": 6323,
      "ĠNet": 6324,
      "Ġchin": 6325,
      "Ġchilly": 6326,
      "urning": 6327,
      "ĠLaur": 6328,
      "ighted": 6329,
      "Ġalive": 6330,
      "Ġoce": 6331,
      "Ġexist": 6332,
      "ulance": 6333,
      "ĠGreek": 6334,
      "Ġpropose": 6335,
      "ĠNobody": 6336,
      "Ġplot": 6337,
      "Ġtools": 6338,
      "Ġamenities": 6339,
      "ĠEDD": 6340,
      "aint": 6341,
      "Ġcompar": 6342,
      "ĠFantastic": 6343,
      "Ġrow": 6344,
      "Ġrub": 6345,
      "Ġrating": 6346,
      "Ġconv": 6347,
      "ĠRel": 6348,
      "ĠRock": 6349,
      "Ġhowever": 6350,
      "ouses": 6351,
      "Ġenvelop": 6352,
      "Ġlottery": 6353,
      "Ġsafer": 6354,
      "Ġafterwards": 6355,
      "Ġguitar": 6356,
      "Ġpaycheck": 6357,
      "erves": 6358,
      "Ġintention": 6359,
      "Ġuncom": 6360,
      "Ġcontr": 6361,
      "class": 6362,
      "ĠKen": 6363,
      "Ġsuppli": 6364,
      "Ġpasses": 6365,
      "Ġdeserves": 6366,
      "Ġrap": 6367,
      "Ġemails": 6368,
      "ups": 6369,
      "Ġbreaking": 6370,
      "Ġfunction": 6371,
      "Ġmathe": 6372,
      "Ġturns": 6373,
      "ĠAlt": 6374,
      "Ġthroughout": 6375,
      "Ġspeakers": 6376,
      "Ġframe": 6377,
      "Ġcountryside": 6378,
      "Ġexperiences": 6379,
      "Ġreturning": 6380,
      "Ġinterviews": 6381,
      "Ġcorporate": 6382,
      "Ġbirds": 6383,
      "Ġinstance": 6384,
      "Ġexamination": 6385,
      "Ġsites": 6386,
      "Ġcookies": 6387,
      "Ġmetal": 6388,
      "Ġshortly": 6389,
      "Ġassured": 6390,
      "Ġmaintenance": 6391,
      "Ġdefinite": 6392,
      "Ġlesson": 6393,
      "Ġrepay": 6394,
      "Ġmemo": 6395,
      "ysis": 6396,
      "Ġattending": 6397,
      "Ġdepending": 6398,
      "Ġconditioning": 6399,
      "Ġhonestly": 6400,
      "Ġtreatment": 6401,
      "Ġanswers": 6402,
      "Ġdrove": 6403,
      "Ġgeneration": 6404,
      "Ġarranged": 6405,
      "Ġdirections": 6406,
      "Ġdiving": 6407,
      "Ġsteps": 6408,
      "Ġpeace": 6409,
      "Ġlandl": 6410,
      "coming": 6411,
      "Ġcurrently": 6412,
      "Ġopera": 6413,
      "Ġpatience": 6414,
      "Ġcapable": 6415,
      "Ġapproval": 6416,
      "Ġlabel": 6417,
      "Ġburning": 6418,
      "Ġpulled": 6419,
      "Ġrelationships": 6420,
      "Ġshooting": 6421,
      "Ġflatter": 6422,
      "Ġchatting": 6423,
      "ĠMaria": 6424,
      "ĠIndeed": 6425,
      "ĠGerm": 6426,
      "ĠMacintosh": 6427,
      "Ġmiserable": 6428,
      "Ġwooden": 6429,
      "Ġmarks": 6430,
      "Ġmarked": 6431,
      "Ġefficiency": 6432,
      "Ġadvantages": 6433,
      "Ġencourage": 6434,
      "Ġassigned": 6435,
      "Ġchemistry": 6436,
      "Ġarrested": 6437,
      "Ġidentification": 6438,
      "Ġdrugs": 6439,
      "Ġreligious": 6440,
      "ĠSavings": 6441,
      "Ġanalysis": 6442,
      "Ġworkshop": 6443,
      "Ġbungee": 6444,
      "Ġmethods": 6445,
      "Ġtuition": 6446,
      "Ġstereo": 6447,
      "Ġtomato": 6448,
      "Ġcoupons": 6449,
      "ĠAfrica": 6450,
      "known": 6451,
      "Ġtarget": 6452,
      "Ġdetective": 6453,
      "Ġstrategy": 6454,
      "Ġconcentrate": 6455,
      "ĠEspecially": 6456,
      "ĠDamn": 6457,
      "Ġcarrots": 6458,
      "Ġkilometers": 6459,
      "Ġgossip": 6460,
      "Ġstorage": 6461,
      "ĠPIN": 6462,
      "fashioned": 6463,
      "minded": 6464,
      "ĠThailand": 6465,
      "ĠBeaut": 6466,
      "ĠLaura": 6467,
      "Ġuncomfortable": 6468,
      "Ġsuppliers": 6469,
      "12": 6470,
      "67": 6471,
      "Sm": 6472,
      "Where": 6473,
      "ean": 6474,
      "han": 6475,
      "iers": 6476,
      "jamin": 6477,
      "lin": 6478,
      "oom": 6479,
      "ship": 6480,
      "tor": 6481,
      "ww": 6482,
      "west": 6483,
      "Ġtack": 6484,
      "Ġtips": 6485,
      "erob": 6486,
      "eries": 6487,
      "Ġah": 6488,
      "Ġau": 6489,
      "Ġthrew": 6490,
      "Ġthrill": 6491,
      "Ġsac": 6492,
      "Ġsink": 6493,
      "ĠIm": 6494,
      "Ġwest": 6495,
      "Ġwise": 6496,
      "Ġmer": 6497,
      "Ġmur": 6498,
      "onse": 6499,
      "Ġcow": 6500,
      "Ġcotton": 6501,
      "itam": 6502,
      "Ġfiance": 6503,
      "Ġpour": 6504,
      "Ġpure": 6505,
      "Ġpun": 6506,
      "Ġpardon": 6507,
      "Ġlamb": 6508,
      "Ġgay": 6509,
      "omin": 6510,
      "ĠWood": 6511,
      "ĠTimes": 6512,
      "ashing": 6513,
      "ĠThirty": 6514,
      "Ġisland": 6515,
      "ĠYi": 6516,
      "Ġbean": 6517,
      "utes": 6518,
      "ida": 6519,
      "charg": 6520,
      "ĠAc": 6521,
      "ĠSl": 6522,
      "ĠSerious": 6523,
      "imb": 6524,
      "Ġeager": 6525,
      "Ġstain": 6526,
      "Ġstole": 6527,
      "ĠMus": 6528,
      "irley": 6529,
      "ĠCap": 6530,
      "ĠCash": 6531,
      "ĠDa": 6532,
      "ĠDian": 6533,
      "Ġneat": 6534,
      "ĠBack": 6535,
      "ĠBaker": 6536,
      "Ġheels": 6537,
      "Ġexit": 6538,
      "ĠGre": 6539,
      "ĠGames": 6540,
      "elle": 6541,
      "andy": 6542,
      "Ġspread": 6543,
      "ĠPol": 6544,
      "Ġours": 6545,
      "Ġracket": 6546,
      "iger": 6547,
      "Ġconclud": 6548,
      "ĠRy": 6549,
      "umping": 6550,
      "istics": 6551,
      "Ġvia": 6552,
      "Ġvoting": 6553,
      "reeze": 6554,
      "Ġovernight": 6555,
      "hew": 6556,
      "Ġsaved": 6557,
      "Ġpron": 6558,
      "itty": 6559,
      "ittance": 6560,
      "ĠHaha": 6561,
      "Ġ29": 6562,
      "anges": 6563,
      "Ġmornings": 6564,
      "Ġperman": 6565,
      "Ġresolution": 6566,
      "getic": 6567,
      "Ġmanners": 6568,
      "ĠIns": 6569,
      "Ġidi": 6570,
      "Ġdeals": 6571,
      "Ġhike": 6572,
      "Ġhardware": 6573,
      "ĠUmm": 6574,
      "Ġleaking": 6575,
      "Ġclassic": 6576,
      "Ġphil": 6577,
      "Ġbooking": 6578,
      "ĠReg": 6579,
      "Ġcareless": 6580,
      "Ġcardboard": 6581,
      "gged": 6582,
      "clus": 6583,
      "Ġactual": 6584,
      "Ġhanded": 6585,
      "Ġsooner": 6586,
      "Ġpassenger": 6587,
      "Ġinvent": 6588,
      "Ġraised": 6589,
      "Ġskating": 6590,
      "Ġbringing": 6591,
      "ĠShirley": 6592,
      "icals": 6593,
      "Ġmarvelous": 6594,
      "Ġtries": 6595,
      "cious": 6596,
      "Ġmush": 6597,
      "Ġprescribe": 6598,
      "Ġprompt": 6599,
      "Ġacademic": 6600,
      "Ġrealized": 6601,
      "Ġmatters": 6602,
      "Ġcredits": 6603,
      "Ġbird": 6604,
      "Ġwines": 6605,
      "Ġfiling": 6606,
      "Ġfilet": 6607,
      "Ġvacant": 6608,
      "Ġforest": 6609,
      "Ġsmoker": 6610,
      "Ġresponse": 6611,
      "Ġexercises": 6612,
      "ĠBrad": 6613,
      "Ġrainy": 6614,
      "Ġesc": 6615,
      "Ġcovers": 6616,
      "Ġcatching": 6617,
      "Ġallowance": 6618,
      "Ġattended": 6619,
      "Ġweights": 6620,
      "Ġdiscussed": 6621,
      "ĠJanuary": 6622,
      "Ġcharity": 6623,
      "ĠTwenty": 6624,
      "ĠZeal": 6625,
      "Ġtempor": 6626,
      "Ġtreated": 6627,
      "Ġeval": 6628,
      "Ġexplan": 6629,
      "Ġdesigner": 6630,
      "Ġmatches": 6631,
      "Ġcollections": 6632,
      "Ġfields": 6633,
      "Ġbenefic": 6634,
      "Ġgrandfather": 6635,
      "Ġcheapest": 6636,
      "Ġfruits": 6637,
      "Ġfigured": 6638,
      "Ġarrangement": 6639,
      "Ġarrangements": 6640,
      "box": 6641,
      "Ġripe": 6642,
      "Ġripped": 6643,
      "Ġserving": 6644,
      "Ġbothering": 6645,
      "Ġanimal": 6646,
      "Ġriding": 6647,
      "Ġcloses": 6648,
      "annel": 6649,
      "Ġreduced": 6650,
      "ĠAdv": 6651,
      "ĠManagement": 6652,
      "ĠParker": 6653,
      "Ġbrain": 6654,
      "Ġbrave": 6655,
      "Ġcartons": 6656,
      "Ġcreated": 6657,
      "Ġenergetic": 6658,
      "Ġphysics": 6659,
      "ĠEuropean": 6660,
      "Ġdestination": 6661,
      "Ġbranches": 6662,
      "Ġautomatic": 6663,
      "Ġsamples": 6664,
      "Ġstrike": 6665,
      "Ġmeantime": 6666,
      "ĠBritish": 6667,
      "Ġorganization": 6668,
      "Ġconstru": 6669,
      "ĠBenjamin": 6670,
      "Ġcombination": 6671,
      "Ġplumbing": 6672,
      "Ġslee": 6673,
      "Ġsensible": 6674,
      "Ġmask": 6675,
      "Ġaudience": 6676,
      "Ġcreate": 6677,
      "ĠSchool": 6678,
      "Ġflavors": 6679,
      "Ġpolitical": 6680,
      "Ġbleeding": 6681,
      "Ġpuzz": 6682,
      "Ġambulance": 6683,
      "Ġenterprise": 6684,
      "storms": 6685,
      "Ġpredict": 6686,
      "Ġhistorical": 6687,
      "Ġtrend": 6688,
      "Ġmirror": 6689,
      "Ġrobbery": 6690,
      "Ġrepresentative": 6691,
      "Ġhamburger": 6692,
      "Ġpencil": 6693,
      "ĠTaxi": 6694,
      "ĠPalace": 6695,
      "ĠHawai": 6696,
      "Ġdecisions": 6697,
      "ĠNeither": 6698,
      "Ġbehavior": 6699,
      "Ġconvinced": 6700,
      "Ġillegal": 6701,
      "Ġearthquake": 6702,
      "Ġsurgery": 6703,
      "ĠAltadena": 6704,
      "Smith": 6705,
      "itamins": 6706,
      "ĠZealand": 6707,
      "18": 6708,
      "34": 6709,
      "95": 6710,
      "Any": 6711,
      "Please": 6712,
      "fts": 6713,
      "firm": 6714,
      "gin": 6715,
      "ged": 6716,
      "host": 6717,
      "ien": 6718,
      "long": 6719,
      "mo": 6720,
      "mine": 6721,
      "pot": 6722,
      "pting": 6723,
      "round": 6724,
      "rings": 6725,
      "ture": 6726,
      "ument": 6727,
      "Ġtatt": 6728,
      "Ġtango": 6729,
      "oust": 6730,
      "inner": 6731,
      "Ġthunder": 6732,
      "Ġsources": 6733,
      "ĠIB": 6734,
      "ĠIr": 6735,
      "ators": 6736,
      "Ġhiring": 6737,
      "itter": 6738,
      "itute": 6739,
      "Ġfasc": 6740,
      "Ġdances": 6741,
      "Ġpam": 6742,
      "Ġgre": 6743,
      "Ġgrill": 6744,
      "arrow": 6745,
      "ett": 6746,
      "endy": 6747,
      "lead": 6748,
      "ĠThai": 6749,
      "ĠYellow": 6750,
      "Ġbeers": 6751,
      "ĠHR": 6752,
      "ĠHilton": 6753,
      "Ġwears": 6754,
      "ĠAgency": 6755,
      "ĠSw": 6756,
      "rip": 6757,
      "illa": 6758,
      "ĠOak": 6759,
      "Ġeast": 6760,
      "Ġstone": 6761,
      "ĠMid": 6762,
      "ĠMine": 6763,
      "ĠMiao": 6764,
      "roke": 6765,
      "Ġshock": 6766,
      "ĠCop": 6767,
      "ĠCIF": 6768,
      "Ġjet": 6769,
      "Ġwheel": 6770,
      "Ġwholes": 6771,
      "Ġsoap": 6772,
      "Ġund": 6773,
      "Ġupper": 6774,
      "Ġsung": 6775,
      "Ġchos": 6776,
      "Ġworn": 6777,
      "Ġheating": 6778,
      "ores": 6779,
      "Ġaspect": 6780,
      "rap": 6781,
      "ĠLat": 6782,
      "ĠLake": 6783,
      "arts": 6784,
      "Ġneedn": 6785,
      "Ġoutgoing": 6786,
      "ĠET": 6787,
      "ĠEither": 6788,
      "ĠPay": 6789,
      "ĠFif": 6790,
      "ĠJerry": 6791,
      "ĠJudy": 6792,
      "Ġclick": 6793,
      "istant": 6794,
      "assy": 6795,
      "Ġens": 6796,
      "Ġbull": 6797,
      "Ġtrash": 6798,
      "Ġtruly": 6799,
      "Ġsheets": 6800,
      "ĠChannel": 6801,
      "Ġgreatly": 6802,
      "Ġpregn": 6803,
      "aked": 6804,
      "Ġbrac": 6805,
      "Ġbridge": 6806,
      "Ġunited": 6807,
      "Ġwriter": 6808,
      "Ġmanagers": 6809,
      "ĠInst": 6810,
      "Ġblog": 6811,
      "Ġdeb": 6812,
      "ĠUntil": 6813,
      "Ġteen": 6814,
      "Ġscrew": 6815,
      "ĠKelly": 6816,
      "Ġsupper": 6817,
      "iverse": 6818,
      "Ġreliable": 6819,
      "Ġcleans": 6820,
      "Ġtrial": 6821,
      "Ġcouples": 6822,
      "Ġstranger": 6823,
      "Ġsli": 6824,
      "Ġslipped": 6825,
      "ĠAsian": 6826,
      "ivity": 6827,
      "Ġbanking": 6828,
      "ĠJohnny": 6829,
      "Ġpolite": 6830,
      "Ġwinning": 6831,
      "Ġqualify": 6832,
      "athy": 6833,
      "Ġcav": 6834,
      "Ġrental": 6835,
      "Ġrefuse": 6836,
      "Ġpreparation": 6837,
      "Ġsym": 6838,
      "Ġprior": 6839,
      "Ġarrival": 6840,
      "Ġallows": 6841,
      "Ġprints": 6842,
      "Ġfollowed": 6843,
      "ĠJanice": 6844,
      "ĠAha": 6845,
      "Ġsystems": 6846,
      "Ġballs": 6847,
      "Ġsisters": 6848,
      "Ġbrothers": 6849,
      "Ġpeaceful": 6850,
      "Ġdistract": 6851,
      "Ġintroduced": 6852,
      "criptions": 6853,
      "Ġleads": 6854,
      "Ġlanded": 6855,
      "Ġsteam": 6856,
      "Ġcompete": 6857,
      "Ġfreed": 6858,
      "Ġconnected": 6859,
      "Ġburger": 6860,
      "Ġsalads": 6861,
      "Ġborrowed": 6862,
      "Ġcomplaints": 6863,
      "Ġreminds": 6864,
      "Ġreminding": 6865,
      "Ġnotebook": 6866,
      "Ġedge": 6867,
      "Ġedition": 6868,
      "Ġnutr": 6869,
      "Ġdocumentary": 6870,
      "Ġcommunicate": 6871,
      "Ġrobbed": 6872,
      "Ġlimited": 6873,
      "Ġnovels": 6874,
      "ĠLeo": 6875,
      "Ġannounce": 6876,
      "Ġfolk": 6877,
      "Ġflea": 6878,
      "Ġoverdraft": 6879,
      "Ġfrustrating": 6880,
      "ynasty": 6881,
      "ĠBasically": 6882,
      "ĠAirlines": 6883,
      "Ġpremium": 6884,
      "pirin": 6885,
      "Ġsouthern": 6886,
      "Ġbuffet": 6887,
      "Ġimmig": 6888,
      "Ġinfluence": 6889,
      "Ġhesitate": 6890,
      "ĠBrian": 6891,
      "Ġbarely": 6892,
      "Ġlandlord": 6893,
      "ĠSeriously": 6894,
      "ĠRyan": 6895,
      "Ġpermanent": 6896,
      "Ġphilos": 6897,
      "ĠHawaii": 6898,
      "Ġfascin": 6899,
      "Ġchosen": 6900,
      "32": 6901,
      "40": 6902,
      "80": 6903,
      "au": 6904,
      "eight": 6905,
      "for": 6906,
      "gl": 6907,
      "giving": 6908,
      "lt": 6909,
      "mber": 6910,
      "mission": 6911,
      "Ġtid": 6912,
      "Ġaerob": 6913,
      "Ġthreat": 6914,
      "Ġcate": 6915,
      "Ġcub": 6916,
      "Ġhip": 6917,
      "Ġtheory": 6918,
      "antern": 6919,
      "Ġbum": 6920,
      "Ġbab": 6921,
      "orate": 6922,
      "order": 6923,
      "Ġdim": 6924,
      "Ġdil": 6925,
      "Ġpow": 6926,
      "Ġpul": 6927,
      "Ġpace": 6928,
      "Ġpeak": 6929,
      "Ġlux": 6930,
      "Ġgam": 6931,
      "Ġghost": 6932,
      "Ġank": 6933,
      "Ġnasty": 6934,
      "ĠTO": 6935,
      "ĠTv": 6936,
      "ĠTang": 6937,
      "ĠTalk": 6938,
      "ĠTeach": 6939,
      "Ġink": 6940,
      "levant": 6941,
      "Ġformer": 6942,
      "erely": 6943,
      "Ġreb": 6944,
      "ĠHol": 6945,
      "ĠHonest": 6946,
      "ĠHalf": 6947,
      "Ġdoz": 6948,
      "rial": 6949,
      "Ġstays": 6950,
      "ĠMag": 6951,
      "Ġsharing": 6952,
      "ĠCr": 6953,
      "ĠCook": 6954,
      "ĠCoke": 6955,
      "ĠDes": 6956,
      "Ġjoint": 6957,
      "Ġjazz": 6958,
      "Ġwhose": 6959,
      "ĠNBA": 6960,
      "Ġum": 6961,
      "Ġchap": 6962,
      "Ġheal": 6963,
      "ĠLA": 6964,
      "ĠLots": 6965,
      "Ġalb": 6966,
      "Ġuseless": 6967,
      "ĠGold": 6968,
      "Ġpros": 6969,
      "quis": 6970,
      "ĠPing": 6971,
      "oline": 6972,
      "resso": 6973,
      "Ġlogo": 6974,
      "ĠAnderson": 6975,
      "agon": 6976,
      "Ġtricks": 6977,
      "Ġsaves": 6978,
      "Ġarts": 6979,
      "ĠHaving": 6980,
      "Ġappeal": 6981,
      "Ġflash": 6982,
      "Ġhappier": 6983,
      "Ġresign": 6984,
      "Ġmustn": 6985,
      "ignon": 6986,
      "Ġuns": 6987,
      "Ġunion": 6988,
      "Ġmonitor": 6989,
      "Ġbloss": 6990,
      "Ġnightm": 6991,
      "ĠAllen": 6992,
      "Ġrecy": 6993,
      "Ġdislike": 6994,
      "ilding": 6995,
      "Ġgram": 6996,
      "ĠStars": 6997,
      "Ġhandbag": 6998,
      "Ġhighway": 6999,
      "Ġremove": 7000,
      "Ġspecially": 7001,
      "Ġrelief": 7002,
      "Ġemb": 7003,
      "Ġdifferently": 7004,
      "Ġtrained": 7005,
      "Ġsignature": 7006,
      "Ġfreezing": 7007,
      "Ġowner": 7008,
      "ĠJoan": 7009,
      "Ġmusical": 7010,
      "Ġending": 7011,
      "Ġentry": 7012,
      "Ġcleaner": 7013,
      "Ġcauses": 7014,
      "Ġsells": 7015,
      "Ġreflect": 7016,
      "Ġappreciated": 7017,
      "olley": 7018,
      "Ġhonors": 7019,
      "Ġcheating": 7020,
      "Ġcontracts": 7021,
      "rosoft": 7022,
      "ledg": 7023,
      "Ġcentury": 7024,
      "Ġattendant": 7025,
      "Ġblackout": 7026,
      "Ġcupboard": 7027,
      "Ġconvenience": 7028,
      "Ġreceipts": 7029,
      "Ġphotography": 7030,
      "Ġaffairs": 7031,
      "Ġvegetable": 7032,
      "Ġgenerous": 7033,
      "Ġstronger": 7034,
      "Ġlawn": 7035,
      "Ġelected": 7036,
      "Ġprofession": 7037,
      "Ġprofessors": 7038,
      "Ġaffordable": 7039,
      "Ġzone": 7040,
      "Ġdreamed": 7041,
      "Ġmotiv": 7042,
      "Ġstressed": 7043,
      "Ġimprovement": 7044,
      "Ġcomplaint": 7045,
      "Ġnaturally": 7046,
      "Ġgarlic": 7047,
      "Ġactivity": 7048,
      "Ġfighting": 7049,
      "ĠItaly": 7050,
      "Ġduties": 7051,
      "ĠAround": 7052,
      "Ġsteaks": 7053,
      "ipei": 7054,
      "Ġscores": 7055,
      "Ġkilo": 7056,
      "Ġkilos": 7057,
      "Ġnegotiation": 7058,
      "Ġcreative": 7059,
      "Ġantique": 7060,
      "Ġjokes": 7061,
      "Ġdecorating": 7062,
      "Ġautomatically": 7063,
      "Ġorganizing": 7064,
      "Ġlifest": 7065,
      "Ġargue": 7066,
      "Ġshuttle": 7067,
      "Ġfrequent": 7068,
      "Ġmanufactur": 7069,
      "Ġviolence": 7070,
      "ĠTaipei": 7071,
      "ĠWindows": 7072,
      "ĠSandals": 7073,
      "Ġbanquet": 7074,
      "Ġdivided": 7075,
      "Ġoutdoor": 7076,
      "Ġcheque": 7077,
      "Ġfolks": 7078,
      "ĠRomans": 7079,
      "Ġcircum": 7080,
      "Ġlecture": 7081,
      "Ġregarding": 7082,
      "ĠKorea": 7083,
      "Ġseventy": 7084,
      "ĠWilliam": 7085,
      "Ġcosmet": 7086,
      "Ġobviously": 7087,
      "ĠContin": 7088,
      "Ġstrawberry": 7089,
      "Ġtablets": 7090,
      "Ġoccupation": 7091,
      "Ġshadow": 7092,
      "Ġcrisp": 7093,
      "Ġdentist": 7094,
      "ĠMicrosoft": 7095,
      "Ġinsects": 7096,
      "Ġcurtains": 7097,
      "Ġcounselor": 7098,
      "Ġexplanation": 7099,
      "Ġtattoo": 7100,
      "ĠIBM": 7101,
      "ĠETV": 7102,
      "Ġfreedom": 7103,
      "Ġcateg": 7104,
      "Ġgamble": 7105,
      "olleyball": 7106,
      "17": 7107,
      "42": 7108,
      "65": 7109,
      "89": 7110,
      "Wh": 7111,
      "cery": 7112,
      "fers": 7113,
      "field": 7114,
      "gri": 7115,
      "life": 7116,
      "moon": 7117,
      "oe": 7118,
      "piece": 7119,
      "water": 7120,
      "Ġuser": 7121,
      "Ġom": 7122,
      "Ġtan": 7123,
      "Ġtas": 7124,
      "Ġtiny": 7125,
      "Ġaid": 7126,
      "Ġsom": 7127,
      "Ġsource": 7128,
      "Ġwound": 7129,
      "rets": 7130,
      "oned": 7131,
      "Ġcro": 7132,
      "Ġcertificates": 7133,
      "Ġtoward": 7134,
      "itors": 7135,
      "Ġpant": 7136,
      "Ġlent": 7137,
      "Ġlying": 7138,
      "Ġgum": 7139,
      "Ġginger": 7140,
      "vember": 7141,
      "Ġnarrow": 7142,
      "oman": 7143,
      "ĠWish": 7144,
      "ĠWendy": 7145,
      "ending": 7146,
      "Ġhack": 7147,
      "Ġreimb": 7148,
      "Ġrelevant": 7149,
      "oosing": 7150,
      "ĠHolly": 7151,
      "alian": 7152,
      "ĠSize": 7153,
      "ĠSwe": 7154,
      "ĠSales": 7155,
      "Ġelder": 7156,
      "ĠMor": 7157,
      "ĠMing": 7158,
      "ĠMarg": 7159,
      "Ġmys": 7160,
      "robe": 7161,
      "ĠCE": 7162,
      "ĠCount": 7163,
      "ĠCup": 7164,
      "adies": 7165,
      "adium": 7166,
      "advant": 7167,
      "ĠDel": 7168,
      "acity": 7169,
      "ĠNan": 7170,
      "ĠNor": 7171,
      "Ġchew": 7172,
      "urred": 7173,
      "ĠLas": 7174,
      "ĠLater": 7175,
      "ĠLadies": 7176,
      "Ġexceed": 7177,
      "ĠNovember": 7178,
      "ĠEar": 7179,
      "ĠEric": 7180,
      "ĠPam": 7181,
      "ĠPost": 7182,
      "oster": 7183,
      "eps": 7184,
      "ĠFlor": 7185,
      "Ġrash": 7186,
      "ĠJill": 7187,
      "Ġfeature": 7188,
      "ares": 7189,
      "umber": 7190,
      "ishing": 7191,
      "Ġnewly": 7192,
      "istance": 7193,
      "Ġ1000": 7194,
      "Ġvase": 7195,
      "Ġvouch": 7196,
      "Ġventure": 7197,
      "Ġenroll": 7198,
      "Ġexports": 7199,
      "Ġprison": 7200,
      "Ġcoins": 7201,
      "Ġapparently": 7202,
      "Ġfloors": 7203,
      "ervation": 7204,
      "Ġbuyer": 7205,
      "Ġresol": 7206,
      "arks": 7207,
      "Ġunex": 7208,
      "Ġunique": 7209,
      "Ġuniverse": 7210,
      "urnished": 7211,
      "Ġaccur": 7212,
      "ĠUnder": 7213,
      "Ġputs": 7214,
      "Ġdrama": 7215,
      "Ġdisadvant": 7216,
      "Ġleis": 7217,
      "Ġhousework": 7218,
      "ancies": 7219,
      "Ġswear": 7220,
      "Ġserves": 7221,
      "ĠAnytime": 7222,
      "Ġregion": 7223,
      "Ġregards": 7224,
      "Ġcouch": 7225,
      "Ġ600": 7226,
      "Ġimpact": 7227,
      "Ġrealtor": 7228,
      "Ġexpectations": 7229,
      "Ġpositions": 7230,
      "Ġsuites": 7231,
      "Ġcashier": 7232,
      "Ġdresses": 7233,
      "Ġwarmer": 7234,
      "Ġcurly": 7235,
      "Ġbillion": 7236,
      "Ġinternal": 7237,
      "Ġtours": 7238,
      "ughty": 7239,
      "Ġwindy": 7240,
      "Ġappointments": 7241,
      "Ġreturned": 7242,
      "Ġpainful": 7243,
      "Ġquicker": 7244,
      "Ġprofic": 7245,
      "Ġcheek": 7246,
      "Ġcheated": 7247,
      "Ġbuildings": 7248,
      "Ġsneak": 7249,
      "Ġsnacks": 7250,
      "Ġsidewalk": 7251,
      "Ġtowel": 7252,
      "Ġtowels": 7253,
      "Ġarrives": 7254,
      "Ġfastest": 7255,
      "ological": 7256,
      "Ġawake": 7257,
      "Ġprovided": 7258,
      "Ġcups": 7259,
      "Ġpressed": 7260,
      "Ġfalls": 7261,
      "Ġdiscounts": 7262,
      "ĠSpain": 7263,
      "Ġsurprising": 7264,
      "Ġmedication": 7265,
      "Ġpublicity": 7266,
      "ĠClass": 7267,
      "Ġenvironmental": 7268,
      "Ġsteamed": 7269,
      "Ġdreams": 7270,
      "Ġorganize": 7271,
      "Ġdrivers": 7272,
      "Ġassistance": 7273,
      "ocable": 7274,
      "Ġapproved": 7275,
      "Ġdrops": 7276,
      "iques": 7277,
      "Ġdeadlines": 7278,
      "Ġwebsites": 7279,
      "Ġprocessing": 7280,
      "Ġcomplaining": 7281,
      "hyd": 7282,
      "Ġhoneymoon": 7283,
      "Ġimmediate": 7284,
      "Ġcanceled": 7285,
      "priate": 7286,
      "Ġshoot": 7287,
      "Ġeditor": 7288,
      "Ġestimate": 7289,
      "Ġconfirmed": 7290,
      "Ġfacilities": 7291,
      "Ġbandages": 7292,
      "Ġinstructor": 7293,
      "ĠSeat": 7294,
      "Ġengineering": 7295,
      "ĠPlay": 7296,
      "Ġnuts": 7297,
      "Ġ::": 7298,
      "Ġmisunder": 7299,
      "Ġbasement": 7300,
      "Ġcooperate": 7301,
      "ĠCheer": 7302,
      "ĠTravell": 7303,
      "Ġadmire": 7304,
      "ĠCalm": 7305,
      "Ġsandwiches": 7306,
      "Ġtoothache": 7307,
      "Ġassignment": 7308,
      "holders": 7309,
      "ĠMexican": 7310,
      "Ġselected": 7311,
      "Ġladder": 7312,
      "Ġlocked": 7313,
      "Ġsmoothly": 7314,
      "Ġsusp": 7315,
      "Ġspirits": 7316,
      "Ġanaly": 7317,
      "Ġworkshops": 7318,
      "Ġinquire": 7319,
      "Ġweaknesses": 7320,
      "month": 7321,
      "Ġgrocery": 7322,
      "ĠRussian": 7323,
      "ĠInteresting": 7324,
      "Ġfuel": 7325,
      "Ġliquor": 7326,
      "ĠMedium": 7327,
      "Ġadministration": 7328,
      "Ġcancelled": 7329,
      "Ġlungs": 7330,
      "ĠOpera": 7331,
      "Ġplaced": 7332,
      "Ġwardrobe": 7333,
      "Ġrecognize": 7334,
      "Ġscarf": 7335,
      "Ġphotographs": 7336,
      "Ġcitiz": 7337,
      "Ġherself": 7338,
      "Ġfrozen": 7339,
      "Ġrewarding": 7340,
      "Ġalternatives": 7341,
      "Ġtourniquet": 7342,
      "Ġprogrammes": 7343,
      "Ġreconfirm": 7344,
      "Ġdumplings": 7345,
      "Ġairline": 7346,
      "Ġmathemat": 7347,
      "Ġmurder": 7348,
      "ĠLatin": 7349,
      "Ġpowder": 7350,
      "05": 7351,
      "19": 7352,
      "Good": 7353,
      "away": 7354,
      "but": 7355,
      "egr": 7356,
      "gic": 7357,
      "lie": 7358,
      "person": 7359,
      "presso": 7360,
      "uation": 7361,
      "van": 7362,
      "xious": 7363,
      "Ġver": 7364,
      "Ġtank": 7365,
      "Ġsin": 7366,
      "Ġsoph": 7367,
      "Ġsigning": 7368,
      "Ġwipe": 7369,
      "Ġya": 7370,
      "reh": 7371,
      "rep": 7372,
      "atory": 7373,
      "Ġcuri": 7374,
      "Ġhide": 7375,
      "Ġhills": 7376,
      "anley": 7377,
      "Ġboo": 7378,
      "Ġbac": 7379,
      "Ġbail": 7380,
      "Ġbaking": 7381,
      "Ġbreeze": 7382,
      "itable": 7383,
      "Ġdu": 7384,
      "Ġdough": 7385,
      "Ġdread": 7386,
      "ingu": 7387,
      "ingers": 7388,
      "Ġped": 7389,
      "Ġlas": 7390,
      "Ġgal": 7391,
      "Ġgap": 7392,
      "Ġgroom": 7393,
      "Ġgraph": 7394,
      "Ġnails": 7395,
      "Ġnurs": 7396,
      "ĠTod": 7397,
      "ĠTitan": 7398,
      "keeping": 7399,
      "Ġreun": 7400,
      "Ġdoc": 7401,
      "alled": 7402,
      "ĠAy": 7403,
      "ĠSum": 7404,
      "rif": 7405,
      "ĠOuch": 7406,
      "Ġeh": 7407,
      "ĠMP": 7408,
      "ĠMuseum": 7409,
      "ĠIts": 7410,
      "Ġshave": 7411,
      "ĠYoung": 7412,
      "ĠWei": 7413,
      "ĠDEL": 7414,
      "ĠDinner": 7415,
      "ĠDalian": 7416,
      "stances": 7417,
      "seven": 7418,
      "section": 7419,
      "ĠBer": 7420,
      "Ġjail": 7421,
      "anted": 7422,
      "ĠNorm": 7423,
      "ĠNah": 7424,
      "Ġchoosing": 7425,
      "Ġaspirin": 7426,
      "Ġcomedy": 7427,
      "raight": 7428,
      "ĠLife": 7429,
      "Ġoint": 7430,
      "ardess": 7431,
      "cted": 7432,
      "Ġspect": 7433,
      "ĠEasy": 7434,
      "ĠPart": 7435,
      "ĠPleased": 7436,
      "ĠFoods": 7437,
      "ĠJean": 7438,
      "Ġshoulders": 7439,
      "ieves": 7440,
      "Ġnewcom": 7441,
      "obe": 7442,
      "Ġlover": 7443,
      "Ġvitamins": 7444,
      "Ġoverall": 7445,
      "Ġtwist": 7446,
      "cknow": 7447,
      "ĠChan": 7448,
      "ĠVisa": 7449,
      "Ġbackpack": 7450,
      "ittee": 7451,
      "Ġlets": 7452,
      "Ġbrick": 7453,
      "ĠThanksgiving": 7454,
      "Ġflag": 7455,
      "Ġcarried": 7456,
      "Ġresident": 7457,
      "Ġintegr": 7458,
      "ĠDonald": 7459,
      "Ġopp": 7460,
      "ization": 7461,
      "atherine": 7462,
      "ĠUK": 7463,
      "ĠUse": 7464,
      "Ġclassroom": 7465,
      "Ġdisg": 7466,
      "Ġfinals": 7467,
      "Ġphones": 7468,
      "Ġgrind": 7469,
      "Ġ38": 7470,
      "Ġbadmin": 7471,
      "oons": 7472,
      "ĠState": 7473,
      "ĠStanley": 7474,
      "ĠStraight": 7475,
      "Ġ56": 7476,
      "ĠKim": 7477,
      "Ġoldest": 7478,
      "Ġremo": 7479,
      "Ġlearnt": 7480,
      "Ġpassing": 7481,
      "Ġpassword": 7482,
      "Ġswoll": 7483,
      "Ġsecure": 7484,
      "Ġdesire": 7485,
      "Ġimports": 7486,
      "Ġmaturity": 7487,
      "Ġtermin": 7488,
      "Ġdiscour": 7489,
      "Ġdiscovered": 7490,
      "Ġspeaker": 7491,
      "Ġsignific": 7492,
      "Ġmuscles": 7493,
      "Ġremembered": 7494,
      "Ġposters": 7495,
      "ĠAsia": 7496,
      "Ġextent": 7497,
      "Ġextreme": 7498,
      "Ġretired": 7499,
      "Ġcolored": 7500,
      "Ġbankrupt": 7501,
      "Ġadvise": 7502,
      "Ġadvanced": 7503,
      "Ġwaterfall": 7504,
      "Ġthirteen": 7505,
      "Ġwalks": 7506,
      "Ġfounded": 7507,
      "Ġemployers": 7508,
      "Ġsixth": 7509,
      "ĠSmoking": 7510,
      "Ġtraveled": 7511,
      "Ġtravelers": 7512,
      "Ġfactories": 7513,
      "Ġcrashed": 7514,
      "Ġrespond": 7515,
      "Ġsellers": 7516,
      "Ġsleepy": 7517,
      "Ġtasted": 7518,
      "Ġsymp": 7519,
      "Ġsymb": 7520,
      "Ġtesting": 7521,
      "Ġcolorful": 7522,
      "Ġprim": 7523,
      "Ġforeigner": 7524,
      "Ġpracticing": 7525,
      "Ġattendants": 7526,
      "clean": 7527,
      "Ġstuffed": 7528,
      "Ġeighty": 7529,
      "ĠGoing": 7530,
      "Ġheav": 7531,
      "ĠTwice": 7532,
      "pected": 7533,
      "overs": 7534,
      "Ġequally": 7535,
      "Ġadvertised": 7536,
      "ĠWithout": 7537,
      "ĠClaim": 7538,
      "Ġbrands": 7539,
      "Ġdieting": 7540,
      "Ġorganized": 7541,
      "Ġbeaches": 7542,
      "Ġhospitality": 7543,
      "Ġsolution": 7544,
      "Ġopinions": 7545,
      "Ġcapacity": 7546,
      "Ġearliest": 7547,
      "meal": 7548,
      "Ġgrape": 7549,
      "Ġclosing": 7550,
      "Ġgasoline": 7551,
      "ĠCarol": 7552,
      "Ġfluently": 7553,
      "ĠMichelle": 7554,
      "Ġportion": 7555,
      "Ġpowerful": 7556,
      "Ġchampions": 7557,
      "ĠChequ": 7558,
      "ĠEliz": 7559,
      "Ġmuseums": 7560,
      "Ġdecorate": 7561,
      "ĠGrandma": 7562,
      "ĠPersonally": 7563,
      "Ġargument": 7564,
      "Ġpoison": 7565,
      "Ġcombined": 7566,
      "ĠPhil": 7567,
      "Ġappearance": 7568,
      "Ġpotato": 7569,
      "Ġslept": 7570,
      "Ġindependently": 7571,
      "Ġtailor": 7572,
      "Ġmasc": 7573,
      "Ġlobster": 7574,
      "Ġsuffered": 7575,
      "Ġreligion": 7576,
      "ĠRoberts": 7577,
      "ĠTermin": 7578,
      "Ġcruise": 7579,
      "Ġparticipate": 7580,
      "Ġcatalogue": 7581,
      "Ġessential": 7582,
      "Ġblanket": 7583,
      "Ġefficiently": 7584,
      "ĠRussia": 7585,
      "Ġprinciples": 7586,
      "looking": 7587,
      "Ġexpanding": 7588,
      "Ġembarrassing": 7589,
      "Ġpublished": 7590,
      "Ġeventually": 7591,
      "Ġninety": 7592,
      "ĠAgain": 7593,
      "Ġadults": 7594,
      "Ġcontains": 7595,
      "Ġslightly": 7596,
      "Ġignore": 7597,
      "Ġyoga": 7598,
      "Ġinjured": 7599,
      "ĠDisney": 7600,
      "Ġrugby": 7601,
      "Ġpassionate": 7602,
      "Ġnaughty": 7603,
      "Ġnegative": 7604,
      "Ġexecut": 7605,
      "Ġproposed": 7606,
      "Ġtroubles": 7607,
      "Ġcomplexion": 7608,
      "Ġtextbooks": 7609,
      "ĠObama": 7610,
      "Ġbuttons": 7611,
      "Ġvictim": 7612,
      "Ġenthusiastic": 7613,
      "Ġbrochure": 7614,
      "revocable": 7615,
      "Ġocean": 7616,
      "Ġcontrary": 7617,
      "ĠGermany": 7618,
      "ĠMusic": 7619,
      "ĠDiana": 7620,
      "Ġpamph": 7621,
      "Ġpregnant": 7622,
      "ĠHoliday": 7623,
      "Ġdozens": 7624,
      "ĠContinued": 7625,
      "ĠMargaret": 7626,
      "Ġmystery": 7627,
      "ĠCEO": 7628,
      "ĠFlorida": 7629,
      "ĠSeattle": 7630,
      "ĠTraveller": 7631,
      "Ġmathematics": 7632,
      "ĠTodd": 7633,
      "ĠTitanic": 7634,
      "Ġointment": 7635,
      "Ġbadminton": 7636,
      "Ġswollen": 7637,
      "Ġsymbol": 7638,
      "26": 7639,
      "39": 7640,
      "77": 7641,
      "78": 7642,
      "98": 7643,
      "AM": 7644,
      "CC": 7645,
      "II": 7646,
      "KE": 7647,
      "OB": 7648,
      "RE": 7649,
      "YZ": 7650,
      "aire": 7651,
      "bon": 7652,
      "dom": 7653,
      "eenth": 7654,
      "fu": 7655,
      "fill": 7656,
      "gom": 7657,
      "gue": 7658,
      "nam": 7659,
      "put": 7660,
      "sir": 7661,
      "uous": 7662,
      "ucc": 7663,
      "vest": 7664,
      "well": 7665,
      "wear": 7666,
      "watch": 7667,
      "zes": 7668,
      "Ġted": 7669,
      "Ġtap": 7670,
      "oul": 7671,
      "Ġsour": 7672,
      "ĠIQ": 7673,
      "Ġwars": 7674,
      "Ġyen": 7675,
      "real": 7676,
      "Ġmouse": 7677,
      "Ġmaker": 7678,
      "Ġmignon": 7679,
      "onese": 7680,
      "onents": 7681,
      "Ġhel": 7682,
      "Ġbiz": 7683,
      "Ġfellow": 7684,
      "Ġfingers": 7685,
      "Ġdeck": 7686,
      "Ġdiss": 7687,
      "Ġdiction": 7688,
      "Ġping": 7689,
      "Ġpier": 7690,
      "Ġlag": 7691,
      "Ġlous": 7692,
      "Ġloun": 7693,
      "Ġnerve": 7694,
      "omes": 7695,
      "aron": 7696,
      "arry": 7697,
      "etic": 7698,
      "ĠTour": 7699,
      "ĠTower": 7700,
      "eday": 7701,
      "Ġitiner": 7702,
      "ĠThrough": 7703,
      "icate": 7704,
      "ician": 7705,
      "ĠHill": 7706,
      "Ġmel": 7707,
      "ching": 7708,
      "rific": 7709,
      "elry": 7710,
      "ĠOops": 7711,
      "Ġep": 7712,
      "Ġstroke": 7713,
      "ĠMust": 7714,
      "ĠMother": 7715,
      "Ġgosh": 7716,
      "Ġshift": 7717,
      "Ġshared": 7718,
      "Ġshorth": 7719,
      "Ġshorter": 7720,
      "ĠCV": 7721,
      "ĠCant": 7722,
      "ĠComm": 7723,
      "ĠCross": 7724,
      "Ġking": 7725,
      "ĠDor": 7726,
      "ĠDuring": 7727,
      "lyn": 7728,
      "usting": 7729,
      "ĠBig": 7730,
      "ĠBeck": 7731,
      "ĠBroad": 7732,
      "Ġjack": 7733,
      "Ġwhe": 7734,
      "Ġwhisk": 7735,
      "ĠNine": 7736,
      "Ġsund": 7737,
      "Ġchill": 7738,
      "Ġchairs": 7739,
      "Ġsomehow": 7740,
      "ĠLing": 7741,
      "ĠLab": 7742,
      "ĠLucky": 7743,
      "Ġobs": 7744,
      "Ġoral": 7745,
      "Ġexquis": 7746,
      "Ġuses": 7747,
      "ula": 7748,
      "ellery": 7749,
      "romise": 7750,
      "Ġspr": 7751,
      "Ġspacious": 7752,
      "ĠEll": 7753,
      "ĠEgy": 7754,
      "ainted": 7755,
      "aste": 7756,
      "ĠPick": 7757,
      "ĠPizza": 7758,
      "Ġcompared": 7759,
      "ĠFe": 7760,
      "ĠFriend": 7761,
      "ĠFoster": 7762,
      "Ġrot": 7763,
      "ĠJord": 7764,
      "Ġconcept": 7765,
      "unci": 7766,
      "ĠRet": 7767,
      "ĠHealth": 7768,
      "Ġvolleyball": 7769,
      "agging": 7770,
      "Ġintersection": 7771,
      "Ġoverhead": 7772,
      "cket": 7773,
      "akers": 7774,
      "Ġadap": 7775,
      "Ġguard": 7776,
      "Ġbrake": 7777,
      "abeth": 7778,
      "Ġ2000": 7779,
      "angers": 7780,
      "Ġpartners": 7781,
      "Ġflood": 7782,
      "Ġresource": 7783,
      "Ġintroverted": 7784,
      "Ġunn": 7785,
      "Ġbecomes": 7786,
      "Ġschem": 7787,
      "ĠInn": 7788,
      "Ġasks": 7789,
      "ĠWhenever": 7790,
      "Ġdehyd": 7791,
      "ptoms": 7792,
      "ointing": 7793,
      "Ġrecip": 7794,
      "ĠHigh": 7795,
      "Ġclassified": 7796,
      "Ġunderstood": 7797,
      "ĠRead": 7798,
      "Ġdifferences": 7799,
      "ĠStay": 7800,
      "ĠStill": 7801,
      "cloth": 7802,
      "Ġmale": 7803,
      "Ġ55": 7804,
      "ĠKitty": 7805,
      "Ġremittance": 7806,
      "Ġsalty": 7807,
      "Ġwatches": 7808,
      "Ġlearner": 7809,
      "Ġinvoking": 7810,
      "Ġrelatively": 7811,
      "Ġdeserved": 7812,
      "Ġimportance": 7813,
      "Ġcleared": 7814,
      "Ġraw": 7815,
      "Ġemph": 7816,
      "Ġinsured": 7817,
      "onsider": 7818,
      "Ġboots": 7819,
      "Ġmatt": 7820,
      "Ġlists": 7821,
      "Ġcostumes": 7822,
      "Ġfridge": 7823,
      "Ġbeautifully": 7824,
      "Ġchildhood": 7825,
      "grad": 7826,
      "Ġconserv": 7827,
      "Ġconsign": 7828,
      "ĠWhole": 7829,
      "Ġextend": 7830,
      "Ġacqu": 7831,
      "Ġinterviewed": 7832,
      "Ġbanker": 7833,
      "Ġsurround": 7834,
      "Ġcorn": 7835,
      "Ġinstit": 7836,
      "Ġcooker": 7837,
      "Ġvisitor": 7838,
      "Ġhealthier": 7839,
      "Ġvacancy": 7840,
      "Ġshorts": 7841,
      "Ġmedia": 7842,
      "Ġbegins": 7843,
      "Ġconfusing": 7844,
      "Ġreported": 7845,
      "Ġespresso": 7846,
      "Ġreporter": 7847,
      "Ġcoverage": 7848,
      "Ġpurs": 7849,
      "Ġpurple": 7850,
      "Ġtaxes": 7851,
      "ĠChristian": 7852,
      "Ġcooler": 7853,
      "Ġdishonest": 7854,
      "Ġattendance": 7855,
      "inson": 7856,
      "Ġproviding": 7857,
      "Ġconditioner": 7858,
      "ruit": 7859,
      "minals": 7860,
      "Ġmagic": 7861,
      "Ġworthwhile": 7862,
      "Ġmatched": 7863,
      "ĠComput": 7864,
      "Ġhunt": 7865,
      "Ġelectrical": 7866,
      "Ġintroduction": 7867,
      "Ġpercentage": 7868,
      "ĠTrading": 7869,
      "Ġimproved": 7870,
      "Ġgrandma": 7871,
      "ĠMostly": 7872,
      "Ġcompetent": 7873,
      "Ġ110": 7874,
      "Ġattracted": 7875,
      "Ġkiller": 7876,
      "Ġconnections": 7877,
      "Ġpurchasing": 7878,
      "Ġtaller": 7879,
      "Ġgrapes": 7880,
      "Ġaccidentally": 7881,
      "Ġ180": 7882,
      "Ġcelebration": 7883,
      "Ġpolling": 7884,
      "Ġcolleague": 7885,
      "Ġquarters": 7886,
      "Ġinvolves": 7887,
      "ĠArm": 7888,
      "ĠArt": 7889,
      "ĠAustralian": 7890,
      "Ġbuddy": 7891,
      "screen": 7892,
      "Ġbrakes": 7893,
      "ĠSeven": 7894,
      "Ġexhibits": 7895,
      "Ġexpression": 7896,
      "ĠXYZ": 7897,
      "Ġwrapped": 7898,
      "ĠCanadian": 7899,
      "ĠAccounting": 7900,
      "Ġspoil": 7901,
      "Ġloads": 7902,
      "Ġadmission": 7903,
      "Ġsafely": 7904,
      "Ġchallenges": 7905,
      "Ġsurfing": 7906,
      "ĠDevelop": 7907,
      "Ġconstantly": 7908,
      "Ġcandidates": 7909,
      "Ġtornad": 7910,
      "Ġpalm": 7911,
      "Ġcontribution": 7912,
      "Ġcontribute": 7913,
      "Ġestablished": 7914,
      "Ġharmful": 7915,
      "Ġhomes": 7916,
      "Ġnicer": 7917,
      "Ġoccasionally": 7918,
      "Ġstatus": 7919,
      "ĠFrancisco": 7920,
      "Ġbanan": 7921,
      "Ġoutdoors": 7922,
      "Ġcheques": 7923,
      "Ġannounced": 7924,
      "ĠRoman": 7925,
      "Ġcirculation": 7926,
      "Ġflew": 7927,
      "Ġpilgri": 7928,
      "Ġinquiry": 7929,
      "Ġscientific": 7930,
      "Ġknocked": 7931,
      "ĠKorean": 7932,
      "Ġprinciple": 7933,
      "paid": 7934,
      "ĠBuilding": 7935,
      "ĠWilliams": 7936,
      "Ġembarrassed": 7937,
      "Ġmulti": 7938,
      "ĠCPR": 7939,
      "Ġcrackers": 7940,
      "Ġmechanical": 7941,
      "Ġpersu": 7942,
      "Ġinfo": 7943,
      "ĠOscar": 7944,
      "Ġsummers": 7945,
      "Ġcuis": 7946,
      "Ġshouting": 7947,
      "proof": 7948,
      "ĠMontgom": 7949,
      "Ġstewardess": 7950,
      "Ġporterhouse": 7951,
      "Ġrapid": 7952,
      "Ġfiancee": 7953,
      "Ġpronunci": 7954,
      "Ġtemporary": 7955,
      "ĠOaks": 7956,
      "Ġwholesale": 7957,
      "Ġensure": 7958,
      "Ġbracelet": 7959,
      "Ġsymptoms": 7960,
      "Ġnutrition": 7961,
      "Ġfascinating": 7962,
      "Ġankle": 7963,
      "ĠHonestly": 7964,
      "Ġlifestyle": 7965,
      "Ġcircumstances": 7966,
      "Ġcosmetics": 7967,
      "Ġsomeday": 7968,
      "Ġunexpected": 7969,
      "Ġsneakers": 7970,
      "ĠCheques": 7971,
      "ĠElizabeth": 7972,
      "Ġlounge": 7973,
      "Ġshorthand": 7974,
      "ĠCantonese": 7975,
      "ĠEgypt": 7976,
      "ĠJordan": 7977,
      "Ġdehydrated": 7978,
      "Ġemphas": 7979,
      "ĠMontgomery": 7980,
      "21": 7981,
      "76": 7982,
      "Al": 7983,
      "All": 7984,
      "Br": 7985,
      "Every": 7986,
      "Your": 7987,
      "corn": 7988,
      "eem": 7989,
      "fly": 7990,
      "ka": 7991,
      "len": 7992,
      "lict": 7993,
      "ns": 7994,
      "nity": 7995,
      "oh": 7996,
      "pong": 7997,
      "rot": 7998,
      "taking": 7999,
      "va": 8000,
      "vis": 8001,
      "virus": 8002,
      "wo": 8003,
      "wide": 8004,
      "yram": 8005,
      "Ġast": 8006,
      "ouquet": 8007,
      "ĠIKE": 8008,
      "Ġwid": 8009,
      "Ġwave": 8010,
      "atmeal": 8011,
      "Ġcert": 8012,
      "Ġcros": 8013,
      "Ġbind": 8014,
      "Ġbaker": 8015,
      "Ġbouquet": 8016,
      "Ġful": 8017,
      "Ġfert": 8018,
      "Ġpatch": 8019,
      "Ġparent": 8020,
      "Ġports": 8021,
      "Ġloo": 8022,
      "Ġlane": 8023,
      "Ġgig": 8024,
      "Ġnomin": 8025,
      "ĠWar": 8026,
      "ĠWars": 8027,
      "ĠWord": 8028,
      "ĠTon": 8029,
      "ĠTea": 8030,
      "ĠTerry": 8031,
      "ĠTiger": 8032,
      "icians": 8033,
      "Ġforced": 8034,
      "Ġrely": 8035,
      "Ġreject": 8036,
      "oog": 8037,
      "Ġdose": 8038,
      "Ġmeg": 8039,
      "Ġyourselves": 8040,
      "outs": 8041,
      "ĠSal": 8042,
      "eland": 8043,
      "ĠOld": 8044,
      "Ġstiff": 8045,
      "ĠMil": 8046,
      "ĠMoney": 8047,
      "Ġshade": 8048,
      "Ġshining": 8049,
      "Ġseated": 8050,
      "Ġseasons": 8051,
      "ĠCustom": 8052,
      "ĠDone": 8053,
      "ĠDig": 8054,
      "sticks": 8055,
      "Ġabilities": 8056,
      "ĠBal": 8057,
      "ĠBud": 8058,
      "opping": 8059,
      "ophy": 8060,
      "Ġsocks": 8061,
      "Ġug": 8062,
      "Ġsuck": 8063,
      "Ġsuited": 8064,
      "thony": 8065,
      "anks": 8066,
      "urities": 8067,
      "Ġcomments": 8068,
      "raham": 8069,
      "ilty": 8070,
      "ulated": 8071,
      "ĠGarden": 8072,
      "ells": 8073,
      "Ġamend": 8074,
      "Ġspa": 8075,
      "Ġspin": 8076,
      "Ġspoke": 8077,
      "Ġspray": 8078,
      "ĠPan": 8079,
      "ĠPort": 8080,
      "venues": 8081,
      "ĠFar": 8082,
      "ĠField": 8083,
      "ĠFeel": 8084,
      "Ġrings": 8085,
      "ĠJac": 8086,
      "Ġconvey": 8087,
      "unter": 8088,
      "unate": 8089,
      "ĠRon": 8090,
      "ĠRiver": 8091,
      "ĠRachel": 8092,
      "olk": 8093,
      "olic": 8094,
      "Ġclar": 8095,
      "Ġcliff": 8096,
      "Ġquitting": 8097,
      "Ġquote": 8098,
      "resp": 8099,
      "ĠAndrew": 8100,
      "Ġovercome": 8101,
      "Ġweekly": 8102,
      "Ġexpense": 8103,
      "Ġsheep": 8104,
      "ems": 8105,
      "ĠVer": 8106,
      "Ġdaytime": 8107,
      "Ġprev": 8108,
      "bert": 8109,
      "Ġcourage": 8110,
      "Ġroommates": 8111,
      "ĠTherefore": 8112,
      "Ġguilty": 8113,
      "Ġhappiness": 8114,
      "Ġresch": 8115,
      "Ġintense": 8116,
      "arker": 8117,
      "Ġunable": 8118,
      "Ġmanic": 8119,
      "Ġaccent": 8120,
      "Ġaccum": 8121,
      "Ġaccidents": 8122,
      "ĠUgh": 8123,
      "ĠExcept": 8124,
      "ĠExchange": 8125,
      "Ġwherever": 8126,
      "Ġleaf": 8127,
      "Ġleak": 8128,
      "Ġdisk": 8129,
      "Ġfined": 8130,
      "Ġpharm": 8131,
      "onds": 8132,
      "irect": 8133,
      "Ġordering": 8134,
      "Ġhandy": 8135,
      "Ġhighlight": 8136,
      "ixed": 8137,
      "ĠKar": 8138,
      "Ġsalaries": 8139,
      "Ġrestrict": 8140,
      "ĠNowadays": 8141,
      "Ġspecies": 8142,
      "Ġpersons": 8143,
      "Ġearrings": 8144,
      "Ġfox": 8145,
      "Ġstopping": 8146,
      "Ġcostume": 8147,
      "Ġlively": 8148,
      "Ġcollar": 8149,
      "ĠFront": 8150,
      "Ġsignal": 8151,
      "ĠLooking": 8152,
      "Ġ65": 8153,
      "grade": 8154,
      "Ġslides": 8155,
      "ĠAsk": 8156,
      "Ġextroverted": 8157,
      "Ġlaunch": 8158,
      "Ġfourteen": 8159,
      "ieth": 8160,
      "encies": 8161,
      "Ġheads": 8162,
      "Ġheadaches": 8163,
      "Ġsixteen": 8164,
      "Ġcutting": 8165,
      "Ġterrif": 8166,
      "Ġwarn": 8167,
      "Ġfactor": 8168,
      "Ġpackaging": 8169,
      "Ġcurry": 8170,
      "Ġlighting": 8171,
      "ercy": 8172,
      "Ġpopulation": 8173,
      "Ġpopcorn": 8174,
      "ĠAnthony": 8175,
      "fficient": 8176,
      "Ġtourists": 8177,
      "Ġredec": 8178,
      "Ġsleeper": 8179,
      "Ġconflict": 8180,
      "works": 8181,
      "ĠMei": 8182,
      "Ġartist": 8183,
      "Ġdishw": 8184,
      "Ġrelaxation": 8185,
      "Ġmagn": 8186,
      "Ġtempting": 8187,
      "Ġtreats": 8188,
      "Ġballot": 8189,
      "Ġperformances": 8190,
      "Ġsuccessfully": 8191
    },
    "merges": [
      [
        "Ġ",
        "t"
      ],
      [
        "Ġ",
        "."
      ],
      [
        "e",
        "r"
      ],
      [
        "<",
        "|"
      ],
      [
        "|",
        ">"
      ],
      [
        "Ġ",
        "<|"
      ],
      [
        "Ġ",
        "a"
      ],
      [
        "o",
        "u"
      ],
      [
        "i",
        "n"
      ],
      [
        "Ġt",
        "h"
      ],
      [
        "u",
        "s"
      ],
      [
        "Ġ",
        "s"
      ],
      [
        "Ġ",
        "I"
      ],
      [
        "o",
        "t"
      ],
      [
        "Ġ",
        "w"
      ],
      [
        "Ġ",
        "y"
      ],
      [
        "Ġ",
        ","
      ],
      [
        "us",
        "er"
      ],
      [
        "Ġy",
        "ou"
      ],
      [
        "r",
        "e"
      ],
      [
        "b",
        "ot"
      ],
      [
        "Ġ",
        "m"
      ],
      [
        "e",
        "n"
      ],
      [
        "a",
        "t"
      ],
      [
        "o",
        "n"
      ],
      [
        "Ġ",
        "c"
      ],
      [
        "Ġ",
        "h"
      ],
      [
        "Ġth",
        "e"
      ],
      [
        "a",
        "n"
      ],
      [
        "Ġt",
        "o"
      ],
      [
        "Ġ",
        "?"
      ],
      [
        "Ġ",
        "b"
      ],
      [
        "l",
        "l"
      ],
      [
        "i",
        "t"
      ],
      [
        "o",
        "r"
      ],
      [
        "Ġ",
        "f"
      ],
      [
        "Ġ",
        "d"
      ],
      [
        "in",
        "g"
      ],
      [
        "i",
        "s"
      ],
      [
        "e",
        "s"
      ],
      [
        "o",
        "f"
      ],
      [
        "Ġ",
        "p"
      ],
      [
        "Ġ",
        "l"
      ],
      [
        "Ġ",
        "g"
      ],
      [
        "v",
        "e"
      ],
      [
        "Ġa",
        "n"
      ],
      [
        "Ġ",
        "n"
      ],
      [
        "o",
        "m"
      ],
      [
        "Ġ",
        "W"
      ],
      [
        "a",
        "r"
      ],
      [
        "o",
        "w"
      ],
      [
        "e",
        "t"
      ],
      [
        "Ġ",
        "T"
      ],
      [
        "e",
        "d"
      ],
      [
        "e",
        "x"
      ],
      [
        "a",
        "s"
      ],
      [
        "Ġ",
        "in"
      ],
      [
        "a",
        "y"
      ],
      [
        "Ġ",
        "it"
      ],
      [
        "en",
        "d"
      ],
      [
        "l",
        "e"
      ],
      [
        "Ġh",
        "a"
      ],
      [
        "ĠT",
        "h"
      ],
      [
        "Ġ",
        "of"
      ],
      [
        "Ġ",
        "is"
      ],
      [
        "Ġan",
        "d"
      ],
      [
        "ex",
        "t"
      ],
      [
        "â",
        "Ģ"
      ],
      [
        "Ġ",
        "âĢ"
      ],
      [
        "Ġ",
        "Y"
      ],
      [
        "k",
        "e"
      ],
      [
        "i",
        "c"
      ],
      [
        "ĠâĢ",
        "Ļ"
      ],
      [
        "Ġb",
        "e"
      ],
      [
        "Ġf",
        "or"
      ],
      [
        "of",
        "t"
      ],
      [
        "end",
        "oft"
      ],
      [
        "endoft",
        "ext"
      ],
      [
        "'",
        "s"
      ],
      [
        "er",
        "e"
      ],
      [
        "l",
        "d"
      ],
      [
        "Ġ",
        "re"
      ],
      [
        "o",
        "o"
      ],
      [
        "Ġ",
        "on"
      ],
      [
        "Ġ",
        "H"
      ],
      [
        "Ġd",
        "o"
      ],
      [
        "Ġha",
        "ve"
      ],
      [
        "u",
        "t"
      ],
      [
        "g",
        "h"
      ],
      [
        "Ġth",
        "at"
      ],
      [
        "Ġm",
        "e"
      ],
      [
        "h",
        "at"
      ],
      [
        "v",
        "er"
      ],
      [
        "Ġw",
        "e"
      ],
      [
        "i",
        "d"
      ],
      [
        "a",
        "l"
      ],
      [
        "c",
        "h"
      ],
      [
        "ou",
        "ld"
      ],
      [
        "a",
        "ll"
      ],
      [
        "Ġ",
        "A"
      ],
      [
        "Ġl",
        "i"
      ],
      [
        "Ġ",
        "!"
      ],
      [
        "Ġyou",
        "r"
      ],
      [
        "ou",
        "t"
      ],
      [
        "Ġa",
        "re"
      ],
      [
        "gh",
        "t"
      ],
      [
        "Ġ",
        "S"
      ],
      [
        "en",
        "t"
      ],
      [
        "r",
        "i"
      ],
      [
        "e",
        "l"
      ],
      [
        "Ġc",
        "an"
      ],
      [
        "'",
        "t"
      ],
      [
        "i",
        "m"
      ],
      [
        "i",
        "on"
      ],
      [
        "i",
        "ll"
      ],
      [
        "Ġ",
        "O"
      ],
      [
        "Ġ",
        "e"
      ],
      [
        "Ġs",
        "t"
      ],
      [
        "om",
        "e"
      ],
      [
        "Ġ",
        "M"
      ],
      [
        "i",
        "r"
      ],
      [
        "t",
        "er"
      ],
      [
        "Ġm",
        "y"
      ],
      [
        "r",
        "o"
      ],
      [
        "it",
        "h"
      ],
      [
        "ĠI",
        "t"
      ],
      [
        "Ġg",
        "o"
      ],
      [
        "Ġli",
        "ke"
      ],
      [
        "Ġs",
        "h"
      ],
      [
        "Ġs",
        "e"
      ],
      [
        "ĠY",
        "ou"
      ],
      [
        "Ġ",
        "C"
      ],
      [
        "Ġ",
        "k"
      ],
      [
        "a",
        "d"
      ],
      [
        "ĠW",
        "hat"
      ],
      [
        "ĠW",
        "e"
      ],
      [
        "Ġ",
        "D"
      ],
      [
        "l",
        "y"
      ],
      [
        "Ġn",
        "e"
      ],
      [
        "Ġw",
        "ith"
      ],
      [
        "a",
        "c"
      ],
      [
        "s",
        "t"
      ],
      [
        "oo",
        "d"
      ],
      [
        "Ġth",
        "is"
      ],
      [
        "n",
        "d"
      ],
      [
        "s",
        "e"
      ],
      [
        "us",
        "t"
      ],
      [
        "Ġa",
        "b"
      ],
      [
        "a",
        "m"
      ],
      [
        "Ġ",
        "B"
      ],
      [
        "Ġ",
        "j"
      ],
      [
        "in",
        "k"
      ],
      [
        "ou",
        "r"
      ],
      [
        "an",
        "t"
      ],
      [
        "all",
        "y"
      ],
      [
        "Ġw",
        "h"
      ],
      [
        "o",
        "p"
      ],
      [
        "Ġ",
        "N"
      ],
      [
        "ĠY",
        "es"
      ],
      [
        "Ġs",
        "o"
      ],
      [
        "i",
        "f"
      ],
      [
        "ver",
        "y"
      ],
      [
        "Ġa",
        "t"
      ],
      [
        "a",
        "ke"
      ],
      [
        "Ġab",
        "out"
      ],
      [
        "Ġ",
        "u"
      ],
      [
        "e",
        "c"
      ],
      [
        "Ġs",
        "u"
      ],
      [
        "Ġc",
        "h"
      ],
      [
        "Ġw",
        "ill"
      ],
      [
        "e",
        "a"
      ],
      [
        "Ġth",
        "ink"
      ],
      [
        "Ġd",
        "on"
      ],
      [
        "r",
        "y"
      ],
      [
        "Ġg",
        "et"
      ],
      [
        "Ġk",
        "n"
      ],
      [
        "Ġn",
        "ot"
      ],
      [
        "t",
        "h"
      ],
      [
        "'",
        "m"
      ],
      [
        "an",
        "k"
      ],
      [
        "c",
        "e"
      ],
      [
        "Ġkn",
        "ow"
      ],
      [
        "Ġw",
        "or"
      ],
      [
        "Ġh",
        "e"
      ],
      [
        "ĠTh",
        "at"
      ],
      [
        "ĠTh",
        "e"
      ],
      [
        "oo",
        "k"
      ],
      [
        "u",
        "r"
      ],
      [
        "Ġw",
        "as"
      ],
      [
        "o",
        "re"
      ],
      [
        "Ġb",
        "ut"
      ],
      [
        "es",
        "t"
      ],
      [
        "Ġse",
        "e"
      ],
      [
        "ĠH",
        "ow"
      ],
      [
        "ic",
        "e"
      ],
      [
        "b",
        "le"
      ],
      [
        "Ġa",
        "s"
      ],
      [
        "Ġth",
        "ere"
      ],
      [
        "h",
        "er"
      ],
      [
        "ĠW",
        "h"
      ],
      [
        "as",
        "e"
      ],
      [
        "Ġs",
        "ome"
      ],
      [
        "Ġc",
        "om"
      ],
      [
        "r",
        "a"
      ],
      [
        "ri",
        "ght"
      ],
      [
        "im",
        "e"
      ],
      [
        "Ġa",
        "ll"
      ],
      [
        "g",
        "e"
      ],
      [
        "Ġ",
        "L"
      ],
      [
        "in",
        "d"
      ],
      [
        "Ġw",
        "hat"
      ],
      [
        "Ġw",
        "ant"
      ],
      [
        "'",
        "ll"
      ],
      [
        "i",
        "ght"
      ],
      [
        "p",
        "p"
      ],
      [
        "at",
        "ion"
      ],
      [
        "Ġan",
        "y"
      ],
      [
        "Ġa",
        "l"
      ],
      [
        "Ġ",
        "o"
      ],
      [
        "Ġg",
        "ood"
      ],
      [
        "Ġ",
        "or"
      ],
      [
        "Ġon",
        "e"
      ],
      [
        "Ġj",
        "ust"
      ],
      [
        "Ġ",
        "ex"
      ],
      [
        "i",
        "l"
      ],
      [
        "Ġ",
        "right"
      ],
      [
        "Ġw",
        "ould"
      ],
      [
        "Ġ",
        "very"
      ],
      [
        "Ġ",
        "us"
      ],
      [
        "ar",
        "d"
      ],
      [
        "u",
        "l"
      ],
      [
        "ar",
        "t"
      ],
      [
        "Ġt",
        "ime"
      ],
      [
        "Ġ",
        "G"
      ],
      [
        "Ġp",
        "ro"
      ],
      [
        "ĠD",
        "o"
      ],
      [
        "ĠWe",
        "ll"
      ],
      [
        "i",
        "ve"
      ],
      [
        "le",
        "ase"
      ],
      [
        "e",
        "ll"
      ],
      [
        "n",
        "t"
      ],
      [
        "ĠTh",
        "ank"
      ],
      [
        "on",
        "e"
      ],
      [
        "r",
        "om"
      ],
      [
        "an",
        "d"
      ],
      [
        "ĠN",
        "o"
      ],
      [
        "Ġwor",
        "k"
      ],
      [
        "es",
        "s"
      ],
      [
        "Ġne",
        "ed"
      ],
      [
        "Ġp",
        "l"
      ],
      [
        "Ġ",
        "out"
      ],
      [
        "q",
        "u"
      ],
      [
        "Ġto",
        "o"
      ],
      [
        "c",
        "t"
      ],
      [
        "Ġre",
        "ally"
      ],
      [
        "u",
        "re"
      ],
      [
        "Ġh",
        "ere"
      ],
      [
        "u",
        "ch"
      ],
      [
        "in",
        "e"
      ],
      [
        "at",
        "e"
      ],
      [
        "on",
        "g"
      ],
      [
        "ĠO",
        "h"
      ],
      [
        "Ġa",
        "m"
      ],
      [
        "Ġu",
        "p"
      ],
      [
        "Ġs",
        "p"
      ],
      [
        "Ġm",
        "uch"
      ],
      [
        "Ġ",
        "E"
      ],
      [
        "a",
        "in"
      ],
      [
        "as",
        "t"
      ],
      [
        "m",
        "ent"
      ],
      [
        "Ġ",
        "P"
      ],
      [
        "Ġgo",
        "ing"
      ],
      [
        "d",
        "ay"
      ],
      [
        "Ġd",
        "id"
      ],
      [
        "Ġl",
        "ook"
      ],
      [
        "ĠB",
        "ut"
      ],
      [
        "er",
        "s"
      ],
      [
        "or",
        "t"
      ],
      [
        "Ġthe",
        "y"
      ],
      [
        "Ġ",
        "our"
      ],
      [
        "Ġt",
        "ake"
      ],
      [
        "Ġ",
        "if"
      ],
      [
        "an",
        "y"
      ],
      [
        "ac",
        "k"
      ],
      [
        "o",
        "s"
      ],
      [
        "v",
        "en"
      ],
      [
        "e",
        "p"
      ],
      [
        "ou",
        "nd"
      ],
      [
        "Ġf",
        "rom"
      ],
      [
        "Ġcom",
        "p"
      ],
      [
        "Ġ",
        "F"
      ],
      [
        "e",
        "ar"
      ],
      [
        "Ġ",
        "r"
      ],
      [
        "i",
        "g"
      ],
      [
        "Ġp",
        "lease"
      ],
      [
        "Ġ",
        "J"
      ],
      [
        "Ġc",
        "on"
      ],
      [
        "u",
        "n"
      ],
      [
        "el",
        "p"
      ],
      [
        "ot",
        "her"
      ],
      [
        "Ġh",
        "elp"
      ],
      [
        "Ġsh",
        "ould"
      ],
      [
        "o",
        "st"
      ],
      [
        "ay",
        "s"
      ],
      [
        "Ġf",
        "e"
      ],
      [
        "Ġn",
        "ow"
      ],
      [
        "Ġa",
        "f"
      ],
      [
        "Ġ",
        "R"
      ],
      [
        "a",
        "re"
      ],
      [
        "i",
        "e"
      ],
      [
        "re",
        "at"
      ],
      [
        "o",
        "l"
      ],
      [
        "Ġc",
        "l"
      ],
      [
        "u",
        "m"
      ],
      [
        "is",
        "h"
      ],
      [
        "Ġof",
        "f"
      ],
      [
        "Ġ",
        "qu"
      ],
      [
        "am",
        "e"
      ],
      [
        "Ġm",
        "ore"
      ],
      [
        "'",
        "ve"
      ],
      [
        "Ġthe",
        "m"
      ],
      [
        "k",
        "ing"
      ],
      [
        "Ġne",
        "w"
      ],
      [
        "ĠH",
        "e"
      ],
      [
        "re",
        "s"
      ],
      [
        "is",
        "t"
      ],
      [
        "o",
        "b"
      ],
      [
        "Ġg",
        "ot"
      ],
      [
        "Ġbe",
        "en"
      ],
      [
        "h",
        "ing"
      ],
      [
        "it",
        "e"
      ],
      [
        "ic",
        "k"
      ],
      [
        "th",
        "ing"
      ],
      [
        "'",
        "re"
      ],
      [
        "Ġh",
        "ow"
      ],
      [
        "Ġ",
        "1"
      ],
      [
        "it",
        "y"
      ],
      [
        "Ġl",
        "o"
      ],
      [
        "ĠA",
        "nd"
      ],
      [
        "Ġ",
        "v"
      ],
      [
        "Ġ",
        "ro"
      ],
      [
        "n",
        "ing"
      ],
      [
        "Ġa",
        "g"
      ],
      [
        "Ġm",
        "ake"
      ],
      [
        "re",
        "e"
      ],
      [
        "ec",
        "t"
      ],
      [
        "ĠC",
        "an"
      ],
      [
        "ĠI",
        "s"
      ],
      [
        "Ġn",
        "o"
      ],
      [
        "om",
        "et"
      ],
      [
        "ow",
        "n"
      ],
      [
        "Ġc",
        "ould"
      ],
      [
        "Ġ.",
        "."
      ],
      [
        "i",
        "es"
      ],
      [
        "ou",
        "nt"
      ],
      [
        "e",
        "op"
      ],
      [
        "ĠO",
        "K"
      ],
      [
        "us",
        "e"
      ],
      [
        "a",
        "g"
      ],
      [
        "eop",
        "le"
      ],
      [
        "'",
        "d"
      ],
      [
        "as",
        "s"
      ],
      [
        "Ġ..",
        "."
      ],
      [
        "Ġin",
        "ter"
      ],
      [
        "ou",
        "s"
      ],
      [
        "Ġb",
        "y"
      ],
      [
        "Ġo",
        "ver"
      ],
      [
        "Ġwh",
        "en"
      ],
      [
        "h",
        "e"
      ],
      [
        "e",
        "k"
      ],
      [
        "Ġh",
        "as"
      ],
      [
        "Ġt",
        "w"
      ],
      [
        "c",
        "k"
      ],
      [
        "Ġ",
        "en"
      ],
      [
        "Ġl",
        "ot"
      ],
      [
        "Ġp",
        "eople"
      ],
      [
        "Ġh",
        "er"
      ],
      [
        "Ġb",
        "us"
      ],
      [
        "Ġb",
        "u"
      ],
      [
        "Ġt",
        "r"
      ],
      [
        "ac",
        "t"
      ],
      [
        "Ġwe",
        "ek"
      ],
      [
        "Ġe",
        "very"
      ],
      [
        "Ġth",
        "en"
      ],
      [
        "Ġc",
        "all"
      ],
      [
        "Ġex",
        "p"
      ],
      [
        "Ġsh",
        "e"
      ],
      [
        "ĠL",
        "et"
      ],
      [
        "Ġsu",
        "re"
      ],
      [
        "Ġs",
        "a"
      ],
      [
        "ou",
        "gh"
      ],
      [
        "Ġc",
        "ome"
      ],
      [
        "0",
        "0"
      ],
      [
        "Ġs",
        "omet"
      ],
      [
        "e",
        "m"
      ],
      [
        "Ġt",
        "ell"
      ],
      [
        "Ġa",
        "r"
      ],
      [
        "ir",
        "st"
      ],
      [
        "or",
        "ry"
      ],
      [
        "d",
        "er"
      ],
      [
        "ĠC",
        "h"
      ],
      [
        "Ġwe",
        "ll"
      ],
      [
        "Ġth",
        "ing"
      ],
      [
        "a",
        "ch"
      ],
      [
        "Ġp",
        "r"
      ],
      [
        "Ġb",
        "et"
      ],
      [
        "a",
        "p"
      ],
      [
        "f",
        "er"
      ],
      [
        "Ġha",
        "d"
      ],
      [
        "ĠS",
        "o"
      ],
      [
        "a",
        "ble"
      ],
      [
        "Ġ",
        "V"
      ],
      [
        "ĠG",
        "ood"
      ],
      [
        "Ġg",
        "reat"
      ],
      [
        "Ġy",
        "ear"
      ],
      [
        "ĠM",
        "ay"
      ],
      [
        "Ġaf",
        "ter"
      ],
      [
        "a",
        "ge"
      ],
      [
        "Ġd",
        "ay"
      ],
      [
        "Ġb",
        "ack"
      ],
      [
        "u",
        "d"
      ],
      [
        "r",
        "ow"
      ],
      [
        "Ġl",
        "ong"
      ],
      [
        "Ġdo",
        "es"
      ],
      [
        "an",
        "ce"
      ],
      [
        "ĠA",
        "re"
      ],
      [
        "v",
        "ing"
      ],
      [
        "Ġp",
        "re"
      ],
      [
        "a",
        "k"
      ],
      [
        "Ġc",
        "o"
      ],
      [
        "ea",
        "h"
      ],
      [
        "ĠM",
        "y"
      ],
      [
        "b",
        "er"
      ],
      [
        "id",
        "e"
      ],
      [
        "Ġw",
        "ay"
      ],
      [
        "ble",
        "m"
      ],
      [
        "ĠThe",
        "y"
      ],
      [
        "ĠWh",
        "y"
      ],
      [
        "Ġpro",
        "blem"
      ],
      [
        "o",
        "y"
      ],
      [
        "c",
        "c"
      ],
      [
        "Ġh",
        "im"
      ],
      [
        "Ġc",
        "our"
      ],
      [
        "it",
        "t"
      ],
      [
        "Ġ",
        "other"
      ],
      [
        "Ġs",
        "ir"
      ],
      [
        "Ġl",
        "et"
      ],
      [
        "p",
        "ort"
      ],
      [
        "Ġj",
        "ob"
      ],
      [
        "ĠH",
        "a"
      ],
      [
        "ic",
        "h"
      ],
      [
        "Ġw",
        "on"
      ],
      [
        "ĠI",
        "f"
      ],
      [
        "Ġa",
        "pp"
      ],
      [
        "Ġro",
        "om"
      ],
      [
        "ĠTh",
        "ere"
      ],
      [
        "Ġto",
        "day"
      ],
      [
        "Ġm",
        "o"
      ],
      [
        "Ġf",
        "irst"
      ],
      [
        "Ġ",
        "ll"
      ],
      [
        "Ġtw",
        "o"
      ],
      [
        "t",
        "y"
      ],
      [
        "Ġa",
        "d"
      ],
      [
        "ĠTh",
        "is"
      ],
      [
        "Ġg",
        "ive"
      ],
      [
        "Ġon",
        "ly"
      ],
      [
        "u",
        "ally"
      ],
      [
        "ĠH",
        "ere"
      ],
      [
        "Ġsomet",
        "hing"
      ],
      [
        "e",
        "f"
      ],
      [
        "Ġg",
        "u"
      ],
      [
        "s",
        "o"
      ],
      [
        "ar",
        "y"
      ],
      [
        "ĠM",
        "r"
      ],
      [
        "Ġs",
        "ay"
      ],
      [
        "Ġt",
        "ry"
      ],
      [
        "Ġb",
        "r"
      ],
      [
        "a",
        "b"
      ],
      [
        "Ġm",
        "any"
      ],
      [
        "Ġk",
        "ind"
      ],
      [
        "Ġ",
        "2"
      ],
      [
        "re",
        "d"
      ],
      [
        "Ġp",
        "ay"
      ],
      [
        "ac",
        "e"
      ],
      [
        "Ġ",
        "im"
      ],
      [
        "ĠY",
        "eah"
      ],
      [
        "Ġcour",
        "se"
      ],
      [
        "an",
        "g"
      ],
      [
        "res",
        "s"
      ],
      [
        "Ġ",
        "'"
      ],
      [
        "b",
        "e"
      ],
      [
        "ri",
        "end"
      ],
      [
        "or",
        "ning"
      ],
      [
        "ĠO",
        "k"
      ],
      [
        "one",
        "y"
      ],
      [
        "Ġfe",
        "el"
      ],
      [
        "Ġcomp",
        "any"
      ],
      [
        "ĠThank",
        "s"
      ],
      [
        "er",
        "t"
      ],
      [
        "oo",
        "l"
      ],
      [
        "Ġp",
        "art"
      ],
      [
        "Ġf",
        "ind"
      ],
      [
        "ĠS",
        "ure"
      ],
      [
        "Ġf",
        "l"
      ],
[...]
